<unk>	0.0
<|nospeech|>	0.0
<pad>	0.0
<|endoftext|>	0.0
<|startoftranscript|>	0.0
<|pnc|>	0.0
<|nopnc|>	0.0
<|startofcontext|>	0.0
<|itn|>	0.0
<|noitn|>	0.0
<|timestamp|>	0.0
<|notimestamp|>	0.0
<|diarize|>	0.0
<|nodiarize|>	0.0
<|spkchange|>	0.0
<|audioseparator|>	0.0
<|emo:undefined|>	0.0
<|emo:neutral|>	0.0
<|emo:happy|>	0.0
<|emo:sad|>	0.0
<|emo:angry|>	0.0
<|unklang|>	0.0
<|predict_lang|>	0.0
<|nopredict_lang|>	0.0
<|aa|>	0.0
<|ab|>	0.0
<|af|>	0.0
<|ak|>	0.0
<|sq|>	0.0
<|am|>	0.0
<|ar|>	0.0
<|an|>	0.0
<|hy|>	0.0
<|as|>	0.0
<|av|>	0.0
<|ae|>	0.0
<|ay|>	0.0
<|az|>	0.0
<|bm|>	0.0
<|ba|>	0.0
<|eu|>	0.0
<|be|>	0.0
<|bn|>	0.0
<|bi|>	0.0
<|bs|>	0.0
<|br|>	0.0
<|bg|>	0.0
<|my|>	0.0
<|ca|>	0.0
<|ch|>	0.0
<|ce|>	0.0
<|ny|>	0.0
<|zh|>	0.0
<|cu|>	0.0
<|cv|>	0.0
<|kw|>	0.0
<|co|>	0.0
<|cr|>	0.0
<|hr|>	0.0
<|cs|>	0.0
<|da|>	0.0
<|dv|>	0.0
<|nl|>	0.0
<|dz|>	0.0
<|en|>	0.0
<|eo|>	0.0
<|et|>	0.0
<|ee|>	0.0
<|fo|>	0.0
<|fj|>	0.0
<|fi|>	0.0
<|fr|>	0.0
<|fy|>	0.0
<|ff|>	0.0
<|gd|>	0.0
<|gl|>	0.0
<|lg|>	0.0
<|ka|>	0.0
<|de|>	0.0
<|el|>	0.0
<|kl|>	0.0
<|gn|>	0.0
<|gu|>	0.0
<|ht|>	0.0
<|ha|>	0.0
<|he|>	0.0
<|hz|>	0.0
<|hi|>	0.0
<|ho|>	0.0
<|hu|>	0.0
<|is|>	0.0
<|io|>	0.0
<|ig|>	0.0
<|id|>	0.0
<|ia|>	0.0
<|ie|>	0.0
<|iu|>	0.0
<|ik|>	0.0
<|ga|>	0.0
<|it|>	0.0
<|ja|>	0.0
<|jv|>	0.0
<|kn|>	0.0
<|kr|>	0.0
<|ks|>	0.0
<|kk|>	0.0
<|km|>	0.0
<|ki|>	0.0
<|rw|>	0.0
<|ky|>	0.0
<|kv|>	0.0
<|kg|>	0.0
<|ko|>	0.0
<|kj|>	0.0
<|ku|>	0.0
<|lo|>	0.0
<|la|>	0.0
<|lv|>	0.0
<|li|>	0.0
<|ln|>	0.0
<|lt|>	0.0
<|lu|>	0.0
<|lb|>	0.0
<|mk|>	0.0
<|mg|>	0.0
<|ms|>	0.0
<|ml|>	0.0
<|mt|>	0.0
<|gv|>	0.0
<|mi|>	0.0
<|mr|>	0.0
<|mh|>	0.0
<|mn|>	0.0
<|na|>	0.0
<|nv|>	0.0
<|nd|>	0.0
<|nr|>	0.0
<|ng|>	0.0
<|ne|>	0.0
<|no|>	0.0
<|nb|>	0.0
<|nn|>	0.0
<|oc|>	0.0
<|oj|>	0.0
<|or|>	0.0
<|om|>	0.0
<|os|>	0.0
<|pi|>	0.0
<|ps|>	0.0
<|fa|>	0.0
<|pl|>	0.0
<|pt|>	0.0
<|pa|>	0.0
<|qu|>	0.0
<|ro|>	0.0
<|rm|>	0.0
<|rn|>	0.0
<|ru|>	0.0
<|se|>	0.0
<|sm|>	0.0
<|sg|>	0.0
<|sa|>	0.0
<|sc|>	0.0
<|sr|>	0.0
<|sn|>	0.0
<|sd|>	0.0
<|si|>	0.0
<|sk|>	0.0
<|sl|>	0.0
<|so|>	0.0
<|st|>	0.0
<|es|>	0.0
<|su|>	0.0
<|sw|>	0.0
<|ss|>	0.0
<|sv|>	0.0
<|tl|>	0.0
<|ty|>	0.0
<|tg|>	0.0
<|ta|>	0.0
<|tt|>	0.0
<|te|>	0.0
<|th|>	0.0
<|bo|>	0.0
<|ti|>	0.0
<|to|>	0.0
<|ts|>	0.0
<|tn|>	0.0
<|tr|>	0.0
<|tk|>	0.0
<|tw|>	0.0
<|ug|>	0.0
<|uk|>	0.0
<|ur|>	0.0
<|uz|>	0.0
<|ve|>	0.0
<|vi|>	0.0
<|vo|>	0.0
<|wa|>	0.0
<|cy|>	0.0
<|wo|>	0.0
<|xh|>	0.0
<|ii|>	0.0
<|yi|>	0.0
<|yo|>	0.0
<|za|>	0.0
<|zu|>	0.0
<|0|>	0.0
<|1|>	0.0
<|2|>	0.0
<|3|>	0.0
<|4|>	0.0
<|5|>	0.0
<|6|>	0.0
<|7|>	0.0
<|8|>	0.0
<|9|>	0.0
<|10|>	0.0
<|spk0|>	0.0
<|spk1|>	0.0
<|spk2|>	0.0
<|spk3|>	0.0
<|spk4|>	0.0
<|spk5|>	0.0
<|spk6|>	0.0
<|spk7|>	0.0
<|spk8|>	0.0
<|spk9|>	0.0
<|spk10|>	0.0
<|spk11|>	0.0
<|spk12|>	0.0
<|spk13|>	0.0
<|spk14|>	0.0
<|spk15|>	0.0
0	0.0
1	0.0
2	0.0
3	0.0
4	0.0
5	0.0
6	0.0
7	0.0
8	0.0
9	0.0
<|spltoken0|>	0.0
<|spltoken1|>	0.0
<|spltoken2|>	0.0
<|spltoken3|>	0.0
<|spltoken4|>	0.0
<|spltoken5|>	0.0
<|spltoken6|>	0.0
<|spltoken7|>	0.0
<|spltoken8|>	0.0
<|spltoken9|>	0.0
<|spltoken10|>	0.0
<|spltoken11|>	0.0
<|spltoken12|>	0.0
<|spltoken13|>	0.0
<|spltoken14|>	0.0
<|spltoken15|>	0.0
<|spltoken16|>	0.0
<|spltoken17|>	0.0
<|spltoken18|>	0.0
<|spltoken19|>	0.0
<|spltoken20|>	0.0
<|spltoken21|>	0.0
<|spltoken22|>	0.0
<|spltoken23|>	0.0
<|spltoken24|>	0.0
<|spltoken25|>	0.0
<|spltoken26|>	0.0
<|spltoken27|>	0.0
<|spltoken28|>	0.0
<|spltoken29|>	0.0
en	-0.0
▁s	-1.0
▁d	-2.0
er	-3.0
▁p	-4.0
▁a	-5.0
▁t	-6.0
in	-7.0
▁m	-8.0
es	-9.0
an	-10.0
▁n	-11.0
▁v	-12.0
ar	-13.0
▁k	-14.0
on	-15.0
is	-16.0
et	-17.0
el	-18.0
▁l	-19.0
or	-20.0
al	-21.0
at	-22.0
as	-23.0
▁c	-24.0
▁o	-25.0
▁j	-26.0
it	-27.0
▁b	-28.0
▁h	-29.0
ie	-30.0
il	-31.0
re	-32.0
▁u	-33.0
os	-34.0
▁f	-35.0
ch	-36.0
em	-37.0
▁i	-38.0
om	-39.0
ra	-40.0
te	-41.0
am	-42.0
▁g	-43.0
▁de	-44.0
ad	-45.0
ro	-46.0
ti	-47.0
▁z	-48.0
us	-49.0
ol	-50.0
▁e	-51.0
ed	-52.0
ta	-53.0
▁w	-54.0
▁п	-55.0
ri	-56.0
un	-57.0
li	-58.0
▁н	-59.0
▁in	-60.0
id	-61.0
▁с	-62.0
le	-63.0
▁в	-64.0
ak	-65.0
ent	-66.0
qu	-67.0
то	-68.0
▁S	-69.0
ur	-70.0
ik	-71.0
▁A	-72.0
▁se	-73.0
im	-74.0
od	-75.0
ci	-76.0
ut	-77.0
▁un	-78.0
ov	-79.0
▁je	-80.0
ul	-81.0
▁M	-82.0
▁T	-83.0
▁na	-84.0
ot	-85.0
▁D	-86.0
▁д	-87.0
▁E	-88.0
▁qu	-89.0
▁en	-90.0
est	-91.0
▁to	-92.0
eg	-93.0
st	-94.0
ai	-95.0
ag	-96.0
ij	-97.0
ра	-98.0
▁P	-99.0
та	-100.0
▁r	-101.0
ud	-102.0
ek	-103.0
ig	-104.0
▁τ	-105.0
▁I	-106.0
ing	-107.0
▁N	-108.0
ни	-109.0
av	-110.0
um	-111.0
ко	-112.0
ia	-113.0
he	-114.0
те	-115.0
но	-116.0
▁на	-117.0
ва	-118.0
▁la	-119.0
ро	-120.0
▁з	-121.0
og	-122.0
▁о	-123.0
ist	-124.0
ir	-125.0
▁м	-126.0
de	-127.0
▁и	-128.0
la	-129.0
ic	-130.0
▁st	-131.0
▁J	-132.0
▁at	-133.0
▁po	-134.0
▁ne	-135.0
▁pr	-136.0
▁an	-137.0
ли	-138.0
▁al	-139.0
aj	-140.0
ти	-141.0
iv	-142.0
▁C	-143.0
ре	-144.0
je	-145.0
▁по	-146.0
ка	-147.0
на	-148.0
▁es	-149.0
and	-150.0
▁H	-151.0
▁B	-152.0
▁re	-153.0
ου	-154.0
ok	-155.0
▁K	-156.0
▁on	-157.0
ne	-158.0
▁pro	-159.0
to	-160.0
▁б	-161.0
ab	-162.0
▁π	-163.0
ou	-164.0
▁L	-165.0
го	-166.0
ter	-167.0
ien	-168.0
▁que	-169.0
▁V	-170.0
▁da	-171.0
ja	-172.0
na	-173.0
ka	-174.0
ри	-175.0
▁par	-176.0
▁su	-177.0
▁O	-178.0
▁et	-179.0
ion	-180.0
▁ja	-181.0
να	-182.0
▁α	-183.0
▁do	-184.0
▁y	-185.0
▁el	-186.0
ru	-187.0
▁é	-188.0
ce	-189.0
▁κ	-190.0
▁di	-191.0
▁σ	-192.0
se	-193.0
▁er	-194.0
ст	-195.0
ma	-196.0
▁con	-197.0
▁ε	-198.0
no	-199.0
ap	-200.0
▁si	-201.0
ен	-202.0
me	-203.0
▁te	-204.0
ni	-205.0
▁ч	-206.0
▁le	-207.0
▁μ	-208.0
▁ma	-209.0
än	-210.0
▁sp	-211.0
▁за	-212.0
ost	-213.0
end	-214.0
ko	-215.0
are	-216.0
▁com	-217.0
ke	-218.0
▁no	-219.0
är	-220.0
ла	-221.0
ers	-222.0
▁G	-223.0
▁sa	-224.0
▁W	-225.0
▁ir	-226.0
ere	-227.0
▁vi	-228.0
▁li	-229.0
▁не	-230.0
▁ž	-231.0
▁the	-232.0
ve	-233.0
▁is	-234.0
▁for	-235.0
ob	-236.0
ле	-237.0
во	-238.0
si	-239.0
αι	-240.0
▁F	-241.0
▁il	-242.0
▁U	-243.0
▁R	-244.0
ть	-245.0
ali	-246.0
ine	-247.0
sa	-248.0
▁ко	-249.0
▁š	-250.0
▁me	-251.0
va	-252.0
ant	-253.0
vo	-254.0
ει	-255.0
ell	-256.0
▁vo	-257.0
ill	-258.0
▁det	-259.0
ast	-260.0
▁ar	-261.0
▁î	-262.0
ze	-263.0
▁ra	-264.0
ho	-265.0
ju	-266.0
ör	-267.0
ки	-268.0
ль	-269.0
▁ni	-270.0
ви	-271.0
ло	-272.0
▁so	-273.0
ver	-274.0
▁pre	-275.0
▁я	-276.0
▁ta	-277.0
▁th	-278.0
▁е	-279.0
tu	-280.0
▁be	-281.0
да	-282.0
pp	-283.0
ind	-284.0
ge	-285.0
▁du	-286.0
ess	-287.0
ks	-288.0
▁od	-289.0
ku	-290.0
ся	-291.0
ac	-292.0
ele	-293.0
ια	-294.0
zy	-295.0
ran	-296.0
ten	-297.0
io	-298.0
▁în	-299.0
ма	-300.0
▁and	-301.0
де	-302.0
▁ka	-303.0
▁да	-304.0
ди	-305.0
ate	-306.0
iz	-307.0
ite	-308.0
sk	-309.0
ente	-310.0
▁у	-311.0
▁za	-312.0
▁per	-313.0
▁pri	-314.0
▁im	-315.0
▁som	-316.0
da	-317.0
▁of	-318.0
τα	-319.0
▁des	-320.0
τι	-321.0
ow	-322.0
ве	-323.0
ny	-324.0
▁op	-325.0
τε	-326.0
▁ob	-327.0
▁den	-328.0
▁ro	-329.0
ui	-330.0
▁до	-331.0
az	-332.0
▁про	-333.0
же	-334.0
▁ve	-335.0
ão	-336.0
▁ko	-337.0
iem	-338.0
не	-339.0
▁ver	-340.0
▁die	-341.0
ens	-342.0
▁mo	-343.0
▁as	-344.0
gy	-345.0
au	-346.0
ort	-347.0
▁δ	-348.0
▁der	-349.0
▁ș	-350.0
▁van	-351.0
▁min	-352.0
▁ch	-353.0
ier	-354.0
lu	-355.0
lo	-356.0
▁og	-357.0
▁att	-358.0
▁то	-359.0
▁č	-360.0
ji	-361.0
pr	-362.0
▁var	-363.0
du	-364.0
▁та	-365.0
▁tr	-366.0
▁ab	-367.0
▁om	-368.0
▁να	-369.0
що	-370.0
ust	-371.0
gen	-372.0
▁sk	-373.0
ми	-374.0
ál	-375.0
den	-376.0
ff	-377.0
▁by	-378.0
mi	-379.0
ás	-380.0
ati	-381.0
▁се	-382.0
▁und	-383.0
▁το	-384.0
▁um	-385.0
ля	-386.0
▁est	-387.0
га	-388.0
all	-389.0
ме	-390.0
▁iz	-391.0
eb	-392.0
ans	-393.0
▁τη	-394.0
op	-395.0
мо	-396.0
▁мо	-397.0
▁от	-398.0
ga	-399.0
▁mu	-400.0
▁а	-401.0
ys	-402.0
▁pas	-403.0
▁ка	-404.0
▁nu	-405.0
▁к	-406.0
▁Z	-407.0
▁del	-408.0
▁mi	-409.0
dz	-410.0
għ	-411.0
▁tal	-412.0
▁med	-413.0
▁tak	-414.0
▁och	-415.0
kt	-416.0
▁ac	-417.0
▁am	-418.0
ní	-419.0
▁au	-420.0
nd	-421.0
πο	-422.0
ont	-423.0
▁man	-424.0
▁pe	-425.0
iti	-426.0
▁και	-427.0
▁pod	-428.0
sz	-429.0
▁și	-430.0
ej	-431.0
ki	-432.0
▁pl	-433.0
▁ku	-434.0
▁av	-435.0
▁ви	-436.0
ord	-437.0
ha	-438.0
▁het	-439.0
ada	-440.0
το	-441.0
ρο	-442.0
▁pos	-443.0
▁т	-444.0
tä	-445.0
iet	-446.0
cht	-447.0
ale	-448.0
ру	-449.0
ina	-450.0
ck	-451.0
po	-452.0
▁že	-453.0
wa	-454.0
ρα	-455.0
▁tu	-456.0
ade	-457.0
▁nie	-458.0
▁έ	-459.0
▁sz	-460.0
ili	-461.0
ba	-462.0
át	-463.0
▁på	-464.0
pe	-465.0
▁ό	-466.0
по	-467.0
▁ра	-468.0
▁ex	-469.0
ija	-470.0
iss	-471.0
▁em	-472.0
ala	-473.0
ber	-474.0
▁ц	-475.0
▁we	-476.0
gi	-477.0
▁és	-478.0
▁ik	-479.0
μα	-480.0
ше	-481.0
▁os	-482.0
▁Т	-483.0
▁kom	-484.0
zi	-485.0
▁γ	-486.0
ation	-487.0
ond	-488.0
mer	-489.0
yt	-490.0
▁för	-491.0
▁sam	-492.0
▁ap	-493.0
▁ol	-494.0
ts	-495.0
be	-496.0
ні	-497.0
▁va	-498.0
ato	-499.0
▁che	-500.0
че	-501.0
чи	-502.0
za	-503.0
▁pu	-504.0
хо	-505.0
▁să	-506.0
ete	-507.0
▁een	-508.0
▁għ	-509.0
ät	-510.0
ven	-511.0
for	-512.0
ile	-513.0
▁az	-514.0
τη	-515.0
bi	-516.0
jo	-517.0
▁че	-518.0
né	-519.0
tor	-520.0
vi	-521.0
ca	-522.0
▁ri	-523.0
ți	-524.0
▁af	-525.0
ons	-526.0
ista	-527.0
äl	-528.0
му	-529.0
nie	-530.0
▁э	-531.0
до	-532.0
ικ	-533.0
▁por	-534.0
▁і	-535.0
mo	-536.0
ug	-537.0
▁Н	-538.0
▁he	-539.0
ogy	-540.0
▁para	-541.0
und	-542.0
▁das	-543.0
▁lo	-544.0
▁εί	-545.0
▁men	-546.0
és	-547.0
▁що	-548.0
pl	-549.0
με	-550.0
men	-551.0
▁ter	-552.0
ня	-553.0
▁В	-554.0
▁του	-555.0
ben	-556.0
ны	-557.0
▁à	-558.0
▁har	-559.0
се	-560.0
▁ha	-561.0
bu	-562.0
▁pol	-563.0
▁De	-564.0
▁or	-565.0
▁ο	-566.0
rav	-567.0
▁ein	-568.0
▁при	-569.0
di	-570.0
so	-571.0
за	-572.0
per	-573.0
art	-574.0
▁pa	-575.0
▁les	-576.0
▁vid	-577.0
▁cu	-578.0
▁kad	-579.0
▁vis	-580.0
oll	-581.0
▁ki	-582.0
▁är	-583.0
rat	-584.0
ча	-585.0
▁dat	-586.0
ett	-587.0
▁что	-588.0
hr	-589.0
che	-590.0
▁hogy	-591.0
бо	-592.0
▁co	-593.0
dy	-594.0
▁it	-595.0
ando	-596.0
▁En	-597.0
▁ce	-598.0
▁ge	-599.0
ung	-600.0
▁kan	-601.0
сто	-602.0
jen	-603.0
▁ser	-604.0
ще	-605.0
▁Ja	-606.0
ih	-607.0
▁го	-608.0
си	-609.0
ци	-610.0
ara	-611.0
▁sv	-612.0
ρι	-613.0
▁με	-614.0
▁ż	-615.0
ies	-616.0
▁Se	-617.0
▁In	-618.0
bl	-619.0
ado	-620.0
▁jo	-621.0
ult	-622.0
jon	-623.0
res	-624.0
že	-625.0
▁met	-626.0
der	-627.0
gu	-628.0
▁til	-629.0
▁П	-630.0
▁meg	-631.0
▁ü	-632.0
ér	-633.0
▁бу	-634.0
▁una	-635.0
ram	-636.0
ση	-637.0
▁ho	-638.0
ym	-639.0
ку	-640.0
ich	-641.0
ore	-642.0
εί	-643.0
▁из	-644.0
ід	-645.0
án	-646.0
▁tai	-647.0
▁С	-648.0
co	-649.0
▁was	-650.0
ila	-651.0
ement	-652.0
νο	-653.0
▁kon	-654.0
▁ist	-655.0
ím	-656.0
pa	-657.0
ela	-658.0
▁nem	-659.0
▁val	-660.0
ata	-661.0
▁tem	-662.0
ang	-663.0
▁tie	-664.0
▁pot	-665.0
esti	-666.0
ón	-667.0
int	-668.0
сти	-669.0
▁Д	-670.0
ста	-671.0
ento	-672.0
elle	-673.0
cz	-674.0
▁dar	-675.0
▁г	-676.0
ши	-677.0
▁пре	-678.0
bo	-679.0
ede	-680.0
red	-681.0
▁lu	-682.0
πό	-683.0
tr	-684.0
que	-685.0
ler	-686.0
ard	-687.0
▁Ma	-688.0
ego	-689.0
▁Al	-690.0
зи	-691.0
ну	-692.0
ini	-693.0
tav	-694.0
▁ei	-695.0
▁egy	-696.0
▁vol	-697.0
amo	-698.0
ib	-699.0
ste	-700.0
▁об	-701.0
ер	-702.0
ita	-703.0
ana	-704.0
ár	-705.0
жи	-706.0
kl	-707.0
▁во	-708.0
▁те	-709.0
ijn	-710.0
лю	-711.0
сь	-712.0
ég	-713.0
ht	-714.0
isk	-715.0
▁Y	-716.0
nen	-717.0
ega	-718.0
▁tra	-719.0
ám	-720.0
nos	-721.0
cu	-722.0
ako	-723.0
ave	-724.0
▁oli	-725.0
▁К	-726.0
▁kas	-727.0
go	-728.0
▁sem	-729.0
▁To	-730.0
ama	-731.0
rit	-732.0
ναι	-733.0
ning	-734.0
▁κα	-735.0
▁М	-736.0
▁că	-737.0
ów	-738.0
jem	-739.0
ър	-740.0
ít	-741.0
kk	-742.0
▁jed	-743.0
ise	-744.0
▁си	-745.0
▁bi	-746.0
▁res	-747.0
ých	-748.0
▁kun	-749.0
▁ма	-750.0
▁ale	-751.0
era	-752.0
▁mit	-753.0
las	-754.0
år	-755.0
▁Ne	-756.0
▁Je	-757.0
▁się	-758.0
▁ми	-759.0
ly	-760.0
▁θ	-761.0
▁zu	-762.0
▁ú	-763.0
▁fil	-764.0
ora	-765.0
ния	-766.0
att	-767.0
▁bu	-768.0
olo	-769.0
▁dem	-770.0
ika	-771.0
ami	-772.0
ito	-773.0
eli	-774.0
ano	-775.0
▁that	-776.0
zt	-777.0
▁О	-778.0
áv	-779.0
ів	-780.0
lig	-781.0
▁για	-782.0
▁př	-783.0
ние	-784.0
ду	-785.0
elt	-786.0
би	-787.0
▁fin	-788.0
▁viņ	-789.0
ία	-790.0
mu	-791.0
eda	-792.0
▁sig	-793.0
▁ħ	-794.0
υτ	-795.0
ων	-796.0
uro	-797.0
ūs	-798.0
eren	-799.0
▁де	-800.0
ct	-801.0
▁ich	-802.0
λλ	-803.0
len	-804.0
αν	-805.0
ari	-806.0
▁iš	-807.0
sp	-808.0
ces	-809.0
▁vy	-810.0
ida	-811.0
лу	-812.0
▁hu	-813.0
▁į	-814.0
ās	-815.0
▁uz	-816.0
▁inter	-817.0
▁ро	-818.0
agħ	-819.0
ky	-820.0
εν	-821.0
ono	-822.0
cia	-823.0
ry	-824.0
ori	-825.0
▁Il	-826.0
▁ent	-827.0
▁pra	-828.0
▁my	-829.0
ille	-830.0
▁Es	-831.0
ft	-832.0
▁dis	-833.0
▁pers	-834.0
▁είναι	-835.0
▁ad	-836.0
▁all	-837.0
ani	-838.0
unt	-839.0
▁Un	-840.0
τικ	-841.0
one	-842.0
▁tre	-843.0
▁fr	-844.0
ante	-845.0
▁И	-846.0
жа	-847.0
sen	-848.0
▁ότι	-849.0
oj	-850.0
▁это	-851.0
ві	-852.0
▁ke	-853.0
ār	-854.0
ane	-855.0
па	-856.0
do	-857.0
ame	-858.0
äm	-859.0
ici	-860.0
ment	-861.0
▁cont	-862.0
со	-863.0
▁που	-864.0
ban	-865.0
ica	-866.0
▁mis	-867.0
ет	-868.0
alt	-869.0
ül	-870.0
én	-871.0
▁è	-872.0
vat	-873.0
▁ty	-874.0
▁gr	-875.0
▁din	-876.0
ön	-877.0
▁са	-878.0
▁από	-879.0
▁los	-880.0
▁mod	-881.0
ene	-882.0
▁бы	-883.0
itu	-884.0
▁но	-885.0
led	-886.0
▁Det	-887.0
ού	-888.0
use	-889.0
▁bet	-890.0
▁este	-891.0
ря	-892.0
▁зна	-893.0
▁την	-894.0
▁St	-895.0
▁ut	-896.0
enn	-897.0
▁pi	-898.0
▁ze	-899.0
uk	-900.0
este	-901.0
zn	-902.0
▁mar	-903.0
ного	-904.0
▁ре	-905.0
▁you	-906.0
▁till	-907.0
▁Q	-908.0
ione	-909.0
či	-910.0
▁han	-911.0
inu	-912.0
▁tas	-913.0
pu	-914.0
ink	-915.0
itt	-916.0
▁ak	-917.0
▁dan	-918.0
▁раз	-919.0
▁pour	-920.0
▁це	-921.0
▁hab	-922.0
▁tod	-923.0
äh	-924.0
chen	-925.0
bli	-926.0
τά	-927.0
tiv	-928.0
▁wir	-929.0
▁imp	-930.0
ice	-931.0
zz	-932.0
пи	-933.0
eri	-934.0
▁sch	-935.0
▁ti	-936.0
▁ju	-937.0
▁ot	-938.0
▁tik	-939.0
isi	-940.0
▁со	-941.0
iek	-942.0
entru	-943.0
▁jag	-944.0
yn	-945.0
▁dob	-946.0
enti	-947.0
рі	-948.0
▁så	-949.0
ima	-950.0
▁χ	-951.0
ert	-952.0
▁raz	-953.0
ied	-954.0
wo	-955.0
ime	-956.0
ino	-957.0
▁pat	-958.0
▁że	-959.0
ρά	-960.0
ту	-961.0
ose	-962.0
▁kur	-963.0
▁pal	-964.0
her	-965.0
tion	-966.0
▁võ	-967.0
▁bil	-968.0
▁ва	-969.0
ουν	-970.0
▁No	-971.0
▁nek	-972.0
še	-973.0
we	-974.0
▁inte	-975.0
▁ved	-976.0
▁sav	-977.0
ger	-978.0
▁Я	-979.0
▁see	-980.0
ken	-981.0
ši	-982.0
▁Ch	-983.0
ema	-984.0
▁А	-985.0
άν	-986.0
▁jeg	-987.0
pi	-988.0
▁fa	-989.0
▁mai	-990.0
eni	-991.0
▁ga	-992.0
ide	-993.0
сть	-994.0
▁ste	-995.0
пе	-996.0
▁συ	-997.0
les	-998.0
ux	-999.0
▁sta	-1000.0
ін	-1001.0
▁nad	-1002.0
ės	-1003.0
▁як	-1004.0
val	-1005.0
ém	-1006.0
emm	-1007.0
▁uh	-1008.0
▁br	-1009.0
▁js	-1010.0
▁zijn	-1011.0
inen	-1012.0
▁las	-1013.0
var	-1014.0
▁care	-1015.0
nu	-1016.0
usi	-1017.0
amente	-1018.0
pre	-1019.0
▁επ	-1020.0
▁вы	-1021.0
ää	-1022.0
unk	-1023.0
ike	-1024.0
het	-1025.0
▁ten	-1026.0
▁sie	-1027.0
ться	-1028.0
ía	-1029.0
ür	-1030.0
▁An	-1031.0
▁dom	-1032.0
tig	-1033.0
ser	-1034.0
▁La	-1035.0
tre	-1036.0
amos	-1037.0
▁τα	-1038.0
▁tro	-1039.0
▁non	-1040.0
▁q	-1041.0
▁fi	-1042.0
man	-1043.0
ги	-1044.0
▁pentru	-1045.0
ισ	-1046.0
▁bo	-1047.0
▁съ	-1048.0
ρε	-1049.0
▁η	-1050.0
up	-1051.0
▁kol	-1052.0
ži	-1053.0
ām	-1054.0
▁aby	-1055.0
▁gen	-1056.0
▁tam	-1057.0
ova	-1058.0
▁Le	-1059.0
ese	-1060.0
▁Α	-1061.0
▁wh	-1062.0
ove	-1063.0
ολ	-1064.0
▁Sie	-1065.0
▁β	-1066.0
лі	-1067.0
▁ф	-1068.0
imo	-1069.0
vis	-1070.0
▁une	-1071.0
ρό	-1072.0
▁wa	-1073.0
ně	-1074.0
ott	-1075.0
▁jak	-1076.0
▁бе	-1077.0
▁fu	-1078.0
eta	-1079.0
van	-1080.0
ét	-1081.0
uma	-1082.0
▁nä	-1083.0
uj	-1084.0
▁Vi	-1085.0
esta	-1086.0
▁fo	-1087.0
▁ikke	-1088.0
▁kien	-1089.0
mente	-1090.0
▁може	-1091.0
▁ни	-1092.0
ums	-1093.0
▁että	-1094.0
▁hän	-1095.0
ije	-1096.0
▁nos	-1097.0
ige	-1098.0
āk	-1099.0
▁как	-1100.0
▁vien	-1101.0
sta	-1102.0
▁mil	-1103.0
ero	-1104.0
ці	-1105.0
▁reg	-1106.0
lj	-1107.0
▁Qu	-1108.0
ого	-1109.0
oli	-1110.0
▁jest	-1111.0
cie	-1112.0
esto	-1113.0
▁over	-1114.0
af	-1115.0
▁хо	-1116.0
▁φ	-1117.0
▁αυτ	-1118.0
▁στο	-1119.0
joni	-1120.0
▁dru	-1121.0
ται	-1122.0
▁aut	-1123.0
σε	-1124.0
▁voor	-1125.0
▁mal	-1126.0
pt	-1127.0
ras	-1128.0
ån	-1129.0
eme	-1130.0
ła	-1131.0
cion	-1132.0
▁Na	-1133.0
▁vous	-1134.0
▁wer	-1135.0
urs	-1136.0
ør	-1137.0
ры	-1138.0
ick	-1139.0
cê	-1140.0
▁nas	-1141.0
▁ö	-1142.0
ção	-1143.0
▁kr	-1144.0
ena	-1145.0
ха	-1146.0
▁uma	-1147.0
▁vai	-1148.0
hom	-1149.0
▁ind	-1150.0
▁все	-1151.0
▁zn	-1152.0
▁como	-1153.0
ins	-1154.0
ende	-1155.0
▁mor	-1156.0
ере	-1157.0
▁това	-1158.0
▁als	-1159.0
ταν	-1160.0
ely	-1161.0
▁svo	-1162.0
▁ud	-1163.0
tó	-1164.0
▁vel	-1165.0
пра	-1166.0
▁us	-1167.0
zen	-1168.0
hn	-1169.0
ción	-1170.0
▁Б	-1171.0
▁vil	-1172.0
ps	-1173.0
▁naj	-1174.0
une	-1175.0
▁yra	-1176.0
▁x	-1177.0
▁roz	-1178.0
мен	-1179.0
▁ktor	-1180.0
▁go	-1181.0
wi	-1182.0
aks	-1183.0
ella	-1184.0
▁probl	-1185.0
ity	-1186.0
▁θα	-1187.0
▁bar	-1188.0
са	-1189.0
σει	-1190.0
▁mais	-1191.0
▁αν	-1192.0
▁То	-1193.0
▁sl	-1194.0
▁comp	-1195.0
▁não	-1196.0
wn	-1197.0
ive	-1198.0
▁von	-1199.0
▁qui	-1200.0
vel	-1201.0
lich	-1202.0
nosti	-1203.0
min	-1204.0
▁war	-1205.0
uje	-1206.0
▁niet	-1207.0
▁ή	-1208.0
ιο	-1209.0
iau	-1210.0
ään	-1211.0
ým	-1212.0
μέ	-1213.0
ament	-1214.0
ole	-1215.0
▁sin	-1216.0
▁not	-1217.0
▁Ar	-1218.0
▁pom	-1219.0
▁vor	-1220.0
āt	-1221.0
por	-1222.0
▁bud	-1223.0
▁wy	-1224.0
ба	-1225.0
isti	-1226.0
▁aj	-1227.0
▁The	-1228.0
▁tur	-1229.0
▁sur	-1230.0
ят	-1231.0
jet	-1232.0
gan	-1233.0
▁Ε	-1234.0
▁kor	-1235.0
iex	-1236.0
▁nicht	-1237.0
▁dal	-1238.0
ρί	-1239.0
eld	-1240.0
іль	-1241.0
let	-1242.0
▁kar	-1243.0
▁dr	-1244.0
uri	-1245.0
by	-1246.0
iden	-1247.0
ern	-1248.0
▁ako	-1249.0
▁σε	-1250.0
că	-1251.0
bil	-1252.0
▁dans	-1253.0
utta	-1254.0
asta	-1255.0
▁sm	-1256.0
ret	-1257.0
▁λ	-1258.0
ido	-1259.0
age	-1260.0
▁her	-1261.0
▁προ	-1262.0
▁mas	-1263.0
inn	-1264.0
▁бо	-1265.0
▁dass	-1266.0
▁пра	-1267.0
kom	-1268.0
▁З	-1269.0
▁mat	-1270.0
▁kā	-1271.0
▁El	-1272.0
▁від	-1273.0
ší	-1274.0
▁wie	-1275.0
pro	-1276.0
▁tar	-1277.0
▁tud	-1278.0
▁ca	-1279.0
kon	-1280.0
▁πε	-1281.0
▁па	-1282.0
lim	-1283.0
▁bes	-1284.0
▁kai	-1285.0
ros	-1286.0
▁для	-1287.0
▁pred	-1288.0
ву	-1289.0
νε	-1290.0
▁era	-1291.0
▁ave	-1292.0
▁bū	-1293.0
nik	-1294.0
ith	-1295.0
▁któ	-1296.0
ors	-1297.0
щи	-1298.0
▁ста	-1299.0
▁tom	-1300.0
▁mus	-1301.0
▁gal	-1302.0
cer	-1303.0
tt	-1304.0
▁Š	-1305.0
▁leg	-1306.0
rij	-1307.0
▁Τ	-1308.0
▁Euro	-1309.0
▁Tai	-1310.0
form	-1311.0
▁ст	-1312.0
▁ме	-1313.0
▁div	-1314.0
ον	-1315.0
▁ду	-1316.0
ска	-1317.0
▁fl	-1318.0
▁auf	-1319.0
▁cons	-1320.0
▁ci	-1321.0
▁так	-1322.0
ket	-1323.0
▁kö	-1324.0
▁ali	-1325.0
▁dos	-1326.0
ουμε	-1327.0
vad	-1328.0
▁str	-1329.0
itä	-1330.0
ase	-1331.0
▁nog	-1332.0
ann	-1333.0
лен	-1334.0
fic	-1335.0
▁υ	-1336.0
fer	-1337.0
▁Κ	-1338.0
▁сво	-1339.0
elo	-1340.0
ec	-1341.0
pos	-1342.0
▁sen	-1343.0
▁nous	-1344.0
▁Com	-1345.0
▁ли	-1346.0
зо	-1347.0
▁sim	-1348.0
▁más	-1349.0
▁δεν	-1350.0
▁Po	-1351.0
īb	-1352.0
▁gl	-1353.0
▁prog	-1354.0
ekk	-1355.0
ure	-1356.0
▁πα	-1357.0
ски	-1358.0
▁sc	-1359.0
▁tri	-1360.0
▁sob	-1361.0
▁kui	-1362.0
▁ag	-1363.0
kun	-1364.0
▁bl	-1365.0
▁ще	-1366.0
ών	-1367.0
▁hm	-1368.0
ρέ	-1369.0
cy	-1370.0
tim	-1371.0
▁ji	-1372.0
▁have	-1373.0
alo	-1374.0
▁ole	-1375.0
ól	-1376.0
vet	-1377.0
rt	-1378.0
▁Tak	-1379.0
▁person	-1380.0
▁ча	-1381.0
▁tagħ	-1382.0
asi	-1383.0
▁στη	-1384.0
šan	-1385.0
zd	-1386.0
▁fel	-1387.0
▁inc	-1388.0
EE	-1389.0
λο	-1390.0
▁ένα	-1391.0
▁ве	-1392.0
▁você	-1393.0
▁mig	-1394.0
▁už	-1395.0
ща	-1396.0
▁Mar	-1397.0
ág	-1398.0
▁heb	-1399.0
ēs	-1400.0
▁vä	-1401.0
▁Da	-1402.0
▁bol	-1403.0
▁ih	-1404.0
ści	-1405.0
vor	-1406.0
št	-1407.0
λα	-1408.0
▁sus	-1409.0
ker	-1410.0
▁cs	-1411.0
▁kter	-1412.0
uld	-1413.0
eks	-1414.0
▁nes	-1415.0
сно	-1416.0
bb	-1417.0
ava	-1418.0
▁alle	-1419.0
▁Par	-1420.0
war	-1421.0
ēj	-1422.0
iko	-1423.0
rad	-1424.0
nost	-1425.0
▁pla	-1426.0
yl	-1427.0
par	-1428.0
ovan	-1429.0
ân	-1430.0
▁dé	-1431.0
▁vers	-1432.0
nak	-1433.0
▁vide	-1434.0
▁eu	-1435.0
ette	-1436.0
▁cer	-1437.0
lik	-1438.0
мі	-1439.0
▁are	-1440.0
oni	-1441.0
ák	-1442.0
▁ou	-1443.0
▁pov	-1444.0
hed	-1445.0
▁ah	-1446.0
gel	-1447.0
hen	-1448.0
ło	-1449.0
ак	-1450.0
hu	-1451.0
ний	-1452.0
ün	-1453.0
ss	-1454.0
▁don	-1455.0
це	-1456.0
▁hat	-1457.0
κε	-1458.0
▁х	-1459.0
▁nov	-1460.0
hat	-1461.0
imi	-1462.0
▁mind	-1463.0
▁tiegħ	-1464.0
▁buvo	-1465.0
▁inv	-1466.0
oc	-1467.0
ner	-1468.0
▁car	-1469.0
λε	-1470.0
él	-1471.0
▁produ	-1472.0
kol	-1473.0
ados	-1474.0
▁tä	-1475.0
fter	-1476.0
▁gro	-1477.0
▁Be	-1478.0
nej	-1479.0
yst	-1480.0
almente	-1481.0
▁Σ	-1482.0
▁plus	-1483.0
▁Pro	-1484.0
жно	-1485.0
áz	-1486.0
ekt	-1487.0
бе	-1488.0
▁mer	-1489.0
nes	-1490.0
▁pie	-1491.0
▁τι	-1492.0
asti	-1493.0
ните	-1494.0
▁Te	-1495.0
agy	-1496.0
▁ć	-1497.0
▁mog	-1498.0
▁ба	-1499.0
ulle	-1500.0
its	-1501.0
ativ	-1502.0
oti	-1503.0
my	-1504.0
▁τον	-1505.0
ats	-1506.0
льно	-1507.0
▁По	-1508.0
ona	-1509.0
▁pres	-1510.0
kel	-1511.0
▁кото	-1512.0
▁Ale	-1513.0
▁aan	-1514.0
▁пере	-1515.0
rem	-1516.0
▁wi	-1517.0
ingap	-1518.0
су	-1519.0
āj	-1520.0
ità	-1521.0
▁id	-1522.0
yv	-1523.0
▁Е	-1524.0
ingen	-1525.0
▁мен	-1526.0
лед	-1527.0
ater	-1528.0
ue	-1529.0
▁tran	-1530.0
▁Me	-1531.0
σι	-1532.0
▁oma	-1533.0
ilo	-1534.0
▁Π	-1535.0
▁sol	-1536.0
▁dig	-1537.0
ство	-1538.0
▁Jo	-1539.0
ор	-1540.0
ah	-1541.0
▁eller	-1542.0
▁Sch	-1543.0
ша	-1544.0
oč	-1545.0
▁μα	-1546.0
▁под	-1547.0
oz	-1548.0
λη	-1549.0
▁prin	-1550.0
▁kl	-1551.0
τή	-1552.0
▁лю	-1553.0
ско	-1554.0
▁biex	-1555.0
▁eine	-1556.0
▁ré	-1557.0
чно	-1558.0
▁dz	-1559.0
emos	-1560.0
akt	-1561.0
ær	-1562.0
▁dire	-1563.0
ass	-1564.0
▁għal	-1565.0
▁up	-1566.0
emb	-1567.0
▁We	-1568.0
▁dol	-1569.0
jer	-1570.0
▁έχ	-1571.0
μο	-1572.0
ura	-1573.0
▁bija	-1574.0
▁mon	-1575.0
▁lai	-1576.0
▁На	-1577.0
esso	-1578.0
▁Er	-1579.0
cij	-1580.0
iste	-1581.0
▁én	-1582.0
▁nap	-1583.0
šk	-1584.0
гу	-1585.0
ysl	-1586.0
сте	-1587.0
ého	-1588.0
ěl	-1589.0
▁kap	-1590.0
anti	-1591.0
▁cor	-1592.0
kr	-1593.0
▁with	-1594.0
▁Μ	-1595.0
ong	-1596.0
▁cre	-1597.0
зу	-1598.0
ande	-1599.0
ív	-1600.0
▁rec	-1601.0
▁He	-1602.0
ργ	-1603.0
▁star	-1604.0
νη	-1605.0
▁zd	-1606.0
▁tā	-1607.0
czy	-1608.0
hod	-1609.0
▁ny	-1610.0
cs	-1611.0
▁cz	-1612.0
ald	-1613.0
▁У	-1614.0
▁što	-1615.0
ný	-1616.0
ēr	-1617.0
pli	-1618.0
▁poz	-1619.0
▁pop	-1620.0
▁int	-1621.0
ach	-1622.0
ijiet	-1623.0
anto	-1624.0
▁Ich	-1625.0
▁sich	-1626.0
ome	-1627.0
enta	-1628.0
▁come	-1629.0
▁kä	-1630.0
▁sab	-1631.0
▁bli	-1632.0
▁app	-1633.0
ád	-1634.0
▁pon	-1635.0
ем	-1636.0
elen	-1637.0
vol	-1638.0
▁przy	-1639.0
▁naš	-1640.0
ais	-1641.0
ând	-1642.0
▁cam	-1643.0
ння	-1644.0
▁lah	-1645.0
▁Ik	-1646.0
åg	-1647.0
▁Oh	-1648.0
▁had	-1649.0
▁mag	-1650.0
rie	-1651.0
▁κά	-1652.0
λλά	-1653.0
▁nav	-1654.0
ły	-1655.0
ρω	-1656.0
ρη	-1657.0
▁mill	-1658.0
pri	-1659.0
▁kont	-1660.0
ří	-1661.0
▁nor	-1662.0
▁Men	-1663.0
▁esta	-1664.0
▁zo	-1665.0
▁maj	-1666.0
вер	-1667.0
▁ru	-1668.0
des	-1669.0
▁zap	-1670.0
▁sag	-1671.0
▁pou	-1672.0
▁дру	-1673.0
▁Ta	-1674.0
▁би	-1675.0
▁Ο	-1676.0
fi	-1677.0
▁für	-1678.0
▁vý	-1679.0
ėl	-1680.0
▁aus	-1681.0
yk	-1682.0
▁Jag	-1683.0
fe	-1684.0
▁ά	-1685.0
▁So	-1686.0
▁kell	-1687.0
eti	-1688.0
ull	-1689.0
зна	-1690.0
▁dit	-1691.0
▁пред	-1692.0
anie	-1693.0
κα	-1694.0
▁gra	-1695.0
ties	-1696.0
▁sel	-1697.0
ams	-1698.0
mis	-1699.0
▁this	-1700.0
endo	-1701.0
▁And	-1702.0
▁pak	-1703.0
▁zá	-1704.0
hi	-1705.0
▁gu	-1706.0
▁ur	-1707.0
hd	-1708.0
▁ger	-1709.0
▁nat	-1710.0
▁tot	-1711.0
ení	-1712.0
▁μια	-1713.0
olog	-1714.0
▁й	-1715.0
▁Re	-1716.0
▁hal	-1717.0
zu	-1718.0
ijo	-1719.0
▁vir	-1720.0
▁pad	-1721.0
▁αυτό	-1722.0
una	-1723.0
su	-1724.0
net	-1725.0
пу	-1726.0
▁fra	-1727.0
mes	-1728.0
land	-1729.0
▁мы	-1730.0
▁Vo	-1731.0
ді	-1732.0
osa	-1733.0
▁É	-1734.0
▁out	-1735.0
osta	-1736.0
▁Nu	-1737.0
kö	-1738.0
ades	-1739.0
iten	-1740.0
oma	-1741.0
▁ie	-1742.0
▁kõ	-1743.0
cis	-1744.0
▁let	-1745.0
▁huwa	-1746.0
▁kam	-1747.0
▁vr	-1748.0
▁cas	-1749.0
▁sal	-1750.0
▁god	-1751.0
ová	-1752.0
▁Ко	-1753.0
anje	-1754.0
wie	-1755.0
esz	-1756.0
lä	-1757.0
▁está	-1758.0
▁sono	-1759.0
▁mes	-1760.0
вати	-1761.0
ului	-1762.0
mas	-1763.0
yd	-1764.0
ъл	-1765.0
▁ker	-1766.0
ev	-1767.0
▁има	-1768.0
▁fost	-1769.0
als	-1770.0
▁или	-1771.0
гра	-1772.0
▁cel	-1773.0
▁просто	-1774.0
▁Р	-1775.0
▁Pr	-1776.0
▁mom	-1777.0
ēl	-1778.0
▁kuri	-1779.0
xx	-1780.0
▁tö	-1781.0
oka	-1782.0
▁bez	-1783.0
жу	-1784.0
▁can	-1785.0
▁ide	-1786.0
▁má	-1787.0
ná	-1788.0
ii	-1789.0
ça	-1790.0
iku	-1791.0
лко	-1792.0
▁Ha	-1793.0
ната	-1794.0
▁ш	-1795.0
▁dok	-1796.0
▁Singap	-1797.0
сі	-1798.0
στε	-1799.0
ych	-1800.0
ény	-1801.0
gs	-1802.0
ēt	-1803.0
▁ő	-1804.0
nih	-1805.0
▁δια	-1806.0
oro	-1807.0
▁Het	-1808.0
▁Jeg	-1809.0
mit	-1810.0
ew	-1811.0
bar	-1812.0
udz	-1813.0
▁wor	-1814.0
ът	-1815.0
▁oc	-1816.0
ći	-1817.0
▁lab	-1818.0
ico	-1819.0
▁жи	-1820.0
ores	-1821.0
▁ez	-1822.0
▁ov	-1823.0
▁ї	-1824.0
ble	-1825.0
jud	-1826.0
elj	-1827.0
▁ai	-1828.0
cent	-1829.0
▁neg	-1830.0
▁parti	-1831.0
▁Die	-1832.0
rol	-1833.0
▁minn	-1834.0
▁μπο	-1835.0
▁tut	-1836.0
ρχ	-1837.0
▁cap	-1838.0
гда	-1839.0
▁volt	-1840.0
▁Но	-1841.0
▁prof	-1842.0
▁seda	-1843.0
sch	-1844.0
▁pen	-1845.0
бы	-1846.0
▁gy	-1847.0
ăr	-1848.0
дно	-1849.0
rov	-1850.0
ania	-1851.0
▁beg	-1852.0
umu	-1853.0
▁col	-1854.0
▁Г	-1855.0
rig	-1856.0
isen	-1857.0
▁kat	-1858.0
lev	-1859.0
▁ett	-1860.0
▁ně	-1861.0
▁nep	-1862.0
ék	-1863.0
▁parte	-1864.0
pen	-1865.0
▁ġ	-1866.0
▁polit	-1867.0
iej	-1868.0
ād	-1869.0
ty	-1870.0
ρώ	-1871.0
br	-1872.0
▁vš	-1873.0
▁ok	-1874.0
бу	-1875.0
▁son	-1876.0
σα	-1877.0
ată	-1878.0
θε	-1879.0
ajo	-1880.0
▁ξ	-1881.0
▁sú	-1882.0
ιά	-1883.0
▁væ	-1884.0
▁väl	-1885.0
▁kot	-1886.0
▁alla	-1887.0
▁jako	-1888.0
lad	-1889.0
▁fac	-1890.0
ħal	-1891.0
▁fuq	-1892.0
▁nar	-1893.0
▁še	-1894.0
▁мі	-1895.0
▁jsem	-1896.0
▁živ	-1897.0
issa	-1898.0
▁μέ	-1899.0
▁prze	-1900.0
del	-1901.0
▁Is	-1902.0
▁ele	-1903.0
▁dur	-1904.0
▁като	-1905.0
szy	-1906.0
▁Ir	-1907.0
▁inst	-1908.0
жда	-1909.0
чен	-1910.0
▁ned	-1911.0
afna	-1912.0
ola	-1913.0
īt	-1914.0
ère	-1915.0
igen	-1916.0
▁ná	-1917.0
ank	-1918.0
▁import	-1919.0
▁ну	-1920.0
gl	-1921.0
πε	-1922.0
▁є	-1923.0
▁mõ	-1924.0
osti	-1925.0
об	-1926.0
▁των	-1927.0
ете	-1928.0
ovor	-1929.0
uv	-1930.0
els	-1931.0
eto	-1932.0
▁rel	-1933.0
ют	-1934.0
emo	-1935.0
▁Th	-1936.0
▁οι	-1937.0
eno	-1938.0
▁teg	-1939.0
uni	-1940.0
▁tako	-1941.0
▁cent	-1942.0
ité	-1943.0
cul	-1944.0
▁ont	-1945.0
▁tag	-1946.0
▁Et	-1947.0
▁kes	-1948.0
cho	-1949.0
tak	-1950.0
isu	-1951.0
nek	-1952.0
▁ин	-1953.0
ument	-1954.0
гато	-1955.0
каза	-1956.0
▁sind	-1957.0
дин	-1958.0
▁Så	-1959.0
τό	-1960.0
▁inf	-1961.0
ца	-1962.0
áll	-1963.0
тел	-1964.0
▁Č	-1965.0
▁Han	-1966.0
про	-1967.0
taa	-1968.0
▁smo	-1969.0
▁lui	-1970.0
ute	-1971.0
▁diff	-1972.0
▁part	-1973.0
bre	-1974.0
oks	-1975.0
ēc	-1976.0
▁ig	-1977.0
▁qed	-1978.0
▁кон	-1979.0
τέ	-1980.0
▁pār	-1981.0
▁spe	-1982.0
ті	-1983.0
ġġ	-1984.0
eten	-1985.0
▁много	-1986.0
▁tun	-1987.0
▁tv	-1988.0
▁alg	-1989.0
ée	-1990.0
ance	-1991.0
nych	-1992.0
aju	-1993.0
▁mol	-1994.0
▁sobre	-1995.0
lus	-1996.0
▁pok	-1997.0
▁tim	-1998.0
ány	-1999.0
ally	-2000.0
isten	-2001.0
▁må	-2002.0
▁Ц	-2003.0
▁kommer	-2004.0
▁μου	-2005.0
kov	-2006.0
▁has	-2007.0
▁¿	-2008.0
onom	-2009.0
▁uit	-2010.0
αα	-2011.0
ns	-2012.0
▁πολ	-2013.0
iec	-2014.0
▁dv	-2015.0
▁jūs	-2016.0
▁vagy	-2017.0
ść	-2018.0
▁Э	-2019.0
old	-2020.0
▁въ	-2021.0
cial	-2022.0
▁роз	-2023.0
▁ти	-2024.0
ire	-2025.0
ip	-2026.0
erg	-2027.0
iks	-2028.0
▁vl	-2029.0
▁mūs	-2030.0
▁bij	-2031.0
▁εν	-2032.0
▁dies	-2033.0
▁isso	-2034.0
ijk	-2035.0
▁mul	-2036.0
▁στην	-2037.0
▁Ez	-2038.0
▁lahko	-2039.0
▁mož	-2040.0
▁Du	-2041.0
hl	-2042.0
ět	-2043.0
▁Не	-2044.0
▁Ș	-2045.0
gt	-2046.0
▁ví	-2047.0
zer	-2048.0
▁ska	-2049.0
▁dra	-2050.0
▁seg	-2051.0
▁Х	-2052.0
our	-2053.0
▁geb	-2054.0
▁sunt	-2055.0
▁nam	-2056.0
owa	-2057.0
▁tek	-2058.0
ved	-2059.0
ства	-2060.0
ões	-2061.0
▁It	-2062.0
▁gran	-2063.0
▁program	-2064.0
▁ant	-2065.0
aire	-2066.0
ност	-2067.0
▁Si	-2068.0
▁See	-2069.0
σω	-2070.0
vu	-2071.0
▁end	-2072.0
▁hij	-2073.0
▁Έ	-2074.0
lij	-2075.0
iał	-2076.0
▁Î	-2077.0
iment	-2078.0
▁ħafna	-2079.0
rod	-2080.0
▁ass	-2081.0
aliz	-2082.0
mel	-2083.0
ята	-2084.0
▁fol	-2085.0
sti	-2086.0
vid	-2087.0
▁haben	-2088.0
▁Mo	-2089.0
▁della	-2090.0
▁più	-2091.0
forma	-2092.0
ös	-2093.0
▁Man	-2094.0
ude	-2095.0
ligt	-2096.0
ето	-2097.0
▁απο	-2098.0
μά	-2099.0
met	-2100.0
emp	-2101.0
assa	-2102.0
cí	-2103.0
▁нас	-2104.0
жен	-2105.0
▁upp	-2106.0
▁kuid	-2107.0
inā	-2108.0
▁Η	-2109.0
▁poč	-2110.0
pad	-2111.0
pres	-2112.0
lar	-2113.0
▁fam	-2114.0
сли	-2115.0
yb	-2116.0
aka	-2117.0
mar	-2118.0
▁taip	-2119.0
ран	-2120.0
πα	-2121.0
τί	-2122.0
них	-2123.0
ets	-2124.0
ings	-2125.0
avo	-2126.0
οι	-2127.0
▁finan	-2128.0
yti	-2129.0
ition	-2130.0
▁As	-2131.0
uks	-2132.0
▁περι	-2133.0
ämä	-2134.0
▁alt	-2135.0
▁ris	-2136.0
té	-2137.0
ira	-2138.0
▁Und	-2139.0
ton	-2140.0
▁lä	-2141.0
ren	-2142.0
ider	-2143.0
вы	-2144.0
▁Og	-2145.0
▁gan	-2146.0
aten	-2147.0
čno	-2148.0
▁efter	-2149.0
▁спо	-2150.0
▁fe	-2151.0
▁dev	-2152.0
now	-2153.0
entes	-2154.0
ные	-2155.0
▁vez	-2156.0
usta	-2157.0
uto	-2158.0
▁rad	-2159.0
▁pun	-2160.0
koll	-2161.0
▁Est	-2162.0
▁dost	-2163.0
спо	-2164.0
▁akt	-2165.0
▁oh	-2166.0
▁вре	-2167.0
▁under	-2168.0
зва	-2169.0
▁Л	-2170.0
▁Im	-2171.0
▁sku	-2172.0
кий	-2173.0
▁sil	-2174.0
▁которы	-2175.0
▁sua	-2176.0
ars	-2177.0
▁Да	-2178.0
▁ost	-2179.0
ээ	-2180.0
elu	-2181.0
ria	-2182.0
▁hel	-2183.0
▁kos	-2184.0
▁kaip	-2185.0
▁għand	-2186.0
ioni	-2187.0
jih	-2188.0
▁ня	-2189.0
▁net	-2190.0
▁pap	-2191.0
▁prost	-2192.0
ты	-2193.0
ють	-2194.0
▁mēs	-2195.0
▁här	-2196.0
tek	-2197.0
▁Am	-2198.0
igt	-2199.0
vē	-2200.0
üü	-2201.0
▁jos	-2202.0
tait	-2203.0
▁І	-2204.0
▁hav	-2205.0
шо	-2206.0
reb	-2207.0
▁pag	-2208.0
ходи	-2209.0
rid	-2210.0
▁naar	-2211.0
▁prav	-2212.0
orn	-2213.0
▁mot	-2214.0
ίν	-2215.0
cha	-2216.0
ral	-2217.0
▁continu	-2218.0
ld	-2219.0
▁far	-2220.0
▁stud	-2221.0
▁ess	-2222.0
▁Ver	-2223.0
▁он	-2224.0
ības	-2225.0
ėj	-2226.0
ėjo	-2227.0
kin	-2228.0
▁kra	-2229.0
▁avec	-2230.0
εια	-2231.0
raz	-2232.0
▁problem	-2233.0
▁ήταν	-2234.0
σο	-2235.0
pet	-2236.0
ръ	-2237.0
γμα	-2238.0
▁organ	-2239.0
▁vu	-2240.0
ils	-2241.0
чу	-2242.0
azz	-2243.0
дна	-2244.0
▁pä	-2245.0
▁len	-2246.0
▁рабо	-2247.0
če	-2248.0
ätt	-2249.0
ρεί	-2250.0
▁werden	-2251.0
ume	-2252.0
ито	-2253.0
arb	-2254.0
▁jis	-2255.0
▁they	-2256.0
ín	-2257.0
▁dec	-2258.0
вори	-2259.0
▁сто	-2260.0
▁daug	-2261.0
▁plan	-2262.0
▁savo	-2263.0
illa	-2264.0
▁maar	-2265.0
ès	-2266.0
▁vad	-2267.0
ilor	-2268.0
ub	-2269.0
▁qual	-2270.0
gal	-2271.0
hal	-2272.0
вно	-2273.0
кти	-2274.0
▁су	-2275.0
▁ди	-2276.0
ack	-2277.0
▁koji	-2278.0
ική	-2279.0
вен	-2280.0
▁wo	-2281.0
▁also	-2282.0
▁någ	-2283.0
lan	-2284.0
▁За	-2285.0
▁кра	-2286.0
▁są	-2287.0
▁Ч	-2288.0
▁Den	-2289.0
▁sme	-2290.0
▁bed	-2291.0
▁він	-2292.0
▁zv	-2293.0
вя	-2294.0
get	-2295.0
▁Viņ	-2296.0
osi	-2297.0
cip	-2298.0
▁під	-2299.0
▁stran	-2300.0
▁hun	-2301.0
▁tid	-2302.0
▁Bet	-2303.0
jeg	-2304.0
▁õ	-2305.0
cess	-2306.0
raw	-2307.0
ден	-2308.0
▁които	-2309.0
ных	-2310.0
▁Kom	-2311.0
mon	-2312.0
oda	-2313.0
▁Och	-2314.0
irm	-2315.0
jn	-2316.0
ép	-2317.0
area	-2318.0
θη	-2319.0
▁bien	-2320.0
▁huma	-2321.0
ovi	-2322.0
▁kok	-2323.0
essa	-2324.0
ša	-2325.0
▁ši	-2326.0
▁hebben	-2327.0
▁ba	-2328.0
bol	-2329.0
▁mak	-2330.0
▁ști	-2331.0
ska	-2332.0
ész	-2333.0
čin	-2334.0
▁така	-2335.0
hm	-2336.0
▁prz	-2337.0
▁sein	-2338.0
▁siis	-2339.0
vil	-2340.0
ją	-2341.0
λά	-2342.0
▁put	-2343.0
ua	-2344.0
▁Ν	-2345.0
ünk	-2346.0
▁situ	-2347.0
ей	-2348.0
пре	-2349.0
▁ін	-2350.0
▁sell	-2351.0
alla	-2352.0
yslím	-2353.0
▁sau	-2354.0
▁ле	-2355.0
wer	-2356.0
isto	-2357.0
pod	-2358.0
▁enc	-2359.0
▁New	-2360.0
▁čas	-2361.0
rar	-2362.0
if	-2363.0
rá	-2364.0
▁bilo	-2365.0
šu	-2366.0
▁ven	-2367.0
ee	-2368.0
ρού	-2369.0
▁буде	-2370.0
тя	-2371.0
leg	-2372.0
esi	-2373.0
▁му	-2374.0
▁num	-2375.0
πά	-2376.0
▁pens	-2377.0
▁hija	-2378.0
▁samo	-2379.0
▁selle	-2380.0
▁sec	-2381.0
▁like	-2382.0
▁bom	-2383.0
elf	-2384.0
вля	-2385.0
ért	-2386.0
▁veľ	-2387.0
tų	-2388.0
vit	-2389.0
▁Δ	-2390.0
pon	-2391.0
ță	-2392.0
ük	-2393.0
▁беше	-2394.0
ât	-2395.0
fin	-2396.0
▁szer	-2397.0
▁πο	-2398.0
any	-2399.0
▁Nie	-2400.0
iga	-2401.0
▁uns	-2402.0
▁gru	-2403.0
▁one	-2404.0
▁пос	-2405.0
χε	-2406.0
▁but	-2407.0
jed	-2408.0
isa	-2409.0
▁jot	-2410.0
йте	-2411.0
▁kön	-2412.0
▁quando	-2413.0
oi	-2414.0
▁kal	-2415.0
▁wat	-2416.0
▁nost	-2417.0
▁post	-2418.0
▁Um	-2419.0
▁sul	-2420.0
▁nagy	-2421.0
▁xi	-2422.0
▁waar	-2423.0
los	-2424.0
sten	-2425.0
esse	-2426.0
▁tap	-2427.0
▁sak	-2428.0
anja	-2429.0
▁Ze	-2430.0
amento	-2431.0
πει	-2432.0
ają	-2433.0
▁gre	-2434.0
▁questo	-2435.0
și	-2436.0
▁Ali	-2437.0
▁ку	-2438.0
▁vet	-2439.0
uden	-2440.0
▁sn	-2441.0
idu	-2442.0
▁nej	-2443.0
dzie	-2444.0
ís	-2445.0
ivers	-2446.0
▁pog	-2447.0
▁čo	-2448.0
izz	-2449.0
tai	-2450.0
▁εκ	-2451.0
▁ljud	-2452.0
▁će	-2453.0
τικό	-2454.0
▁form	-2455.0
▁taj	-2456.0
cio	-2457.0
indi	-2458.0
ll	-2459.0
▁sub	-2460.0
▁чтобы	-2461.0
vez	-2462.0
▁gar	-2463.0
▁най	-2464.0
ish	-2465.0
▁nik	-2466.0
istä	-2467.0
erd	-2468.0
▁vz	-2469.0
ez	-2470.0
▁his	-2471.0
нь	-2472.0
oval	-2473.0
λή	-2474.0
▁επι	-2475.0
inti	-2476.0
ій	-2477.0
▁arī	-2478.0
▁sont	-2479.0
▁щоб	-2480.0
▁prie	-2481.0
▁liv	-2482.0
▁tõ	-2483.0
▁moż	-2484.0
▁стра	-2485.0
avad	-2486.0
▁ben	-2487.0
ident	-2488.0
▁lid	-2489.0
īdz	-2490.0
▁чи	-2491.0
ales	-2492.0
iter	-2493.0
kal	-2494.0
odu	-2495.0
▁Și	-2496.0
▁pass	-2497.0
ване	-2498.0
ony	-2499.0
uste	-2500.0
emme	-2501.0
idad	-2502.0
▁пла	-2503.0
jat	-2504.0
при	-2505.0
miss	-2506.0
▁kv	-2507.0
ski	-2508.0
▁will	-2509.0
▁hand	-2510.0
tra	-2511.0
▁дума	-2512.0
▁σα	-2513.0
▁stor	-2514.0
fa	-2515.0
▁bel	-2516.0
ăm	-2517.0
кла	-2518.0
▁għall	-2519.0
▁hi	-2520.0
▁tele	-2521.0
ché	-2522.0
▁kdy	-2523.0
EEEE	-2524.0
ється	-2525.0
▁did	-2526.0
▁Takže	-2527.0
▁dist	-2528.0
λέ	-2529.0
дя	-2530.0
ный	-2531.0
ovat	-2532.0
ós	-2533.0
ții	-2534.0
cija	-2535.0
tic	-2536.0
▁dej	-2537.0
вите	-2538.0
▁cr	-2539.0
itet	-2540.0
▁chi	-2541.0
zione	-2542.0
▁sed	-2543.0
uss	-2544.0
nud	-2545.0
▁dag	-2546.0
ations	-2547.0
seb	-2548.0
▁dov	-2549.0
▁tan	-2550.0
cep	-2551.0
ție	-2552.0
ίζ	-2553.0
▁gi	-2554.0
čen	-2555.0
▁kako	-2556.0
ωω	-2557.0
δο	-2558.0
▁solo	-2559.0
waż	-2560.0
▁Ho	-2561.0
iska	-2562.0
▁spr	-2563.0
▁né	-2564.0
yr	-2565.0
φο	-2566.0
mod	-2567.0
nom	-2568.0
kas	-2569.0
▁Sp	-2570.0
hte	-2571.0
▁just	-2572.0
ċċ	-2573.0
āju	-2574.0
▁hist	-2575.0
▁å	-2576.0
ват	-2577.0
▁faz	-2578.0
onn	-2579.0
▁тако	-2580.0
он	-2581.0
▁его	-2582.0
▁ś	-2583.0
▁vra	-2584.0
▁ανα	-2585.0
▁skulle	-2586.0
▁mě	-2587.0
▁aqu	-2588.0
▁bra	-2589.0
vä	-2590.0
▁know	-2591.0
lio	-2592.0
ula	-2593.0
aja	-2594.0
сту	-2595.0
▁On	-2596.0
▁Co	-2597.0
▁cin	-2598.0
alis	-2599.0
▁hier	-2600.0
vir	-2601.0
▁asi	-2602.0
īj	-2603.0
▁já	-2604.0
▁hát	-2605.0
▁sor	-2606.0
iva	-2607.0
▁gener	-2608.0
▁mond	-2609.0
ότε	-2610.0
lat	-2611.0
ним	-2612.0
▁tul	-2613.0
▁hemm	-2614.0
κό	-2615.0
ild	-2616.0
▁πολύ	-2617.0
▁door	-2618.0
esp	-2619.0
▁ook	-2620.0
▁joka	-2621.0
▁sou	-2622.0
bor	-2623.0
zą	-2624.0
▁ком	-2625.0
esch	-2626.0
ator	-2627.0
▁esc	-2628.0
пер	-2629.0
▁wię	-2630.0
▁Hän	-2631.0
γο	-2632.0
▁ä	-2633.0
ovo	-2634.0
▁În	-2635.0
▁же	-2636.0
▁nev	-2637.0
hekk	-2638.0
▁zna	-2639.0
▁Fran	-2640.0
hing	-2641.0
▁ace	-2642.0
▁EU	-2643.0
▁dei	-2644.0
νέ	-2645.0
ől	-2646.0
▁Це	-2647.0
▁zač	-2648.0
▁år	-2649.0
gli	-2650.0
кра	-2651.0
▁ту	-2652.0
▁nii	-2653.0
▁prom	-2654.0
▁hom	-2655.0
uta	-2656.0
ется	-2657.0
▁Az	-2658.0
чки	-2659.0
rop	-2660.0
arte	-2661.0
▁eff	-2662.0
ħħ	-2663.0
être	-2664.0
sto	-2665.0
▁Та	-2666.0
▁vend	-2667.0
▁mida	-2668.0
▁bas	-2669.0
▁über	-2670.0
▁Mas	-2671.0
▁ed	-2672.0
▁več	-2673.0
ungen	-2674.0
τικά	-2675.0
▁aš	-2676.0
▁Der	-2677.0
▁коли	-2678.0
▁Γ	-2679.0
бва	-2680.0
ód	-2681.0
ικά	-2682.0
▁Bo	-2683.0
▁pet	-2684.0
ep	-2685.0
ποι	-2686.0
cut	-2687.0
ič	-2688.0
łem	-2689.0
▁kans	-2690.0
imas	-2691.0
▁само	-2692.0
bal	-2693.0
uda	-2694.0
▁ret	-2695.0
▁Nem	-2696.0
oss	-2697.0
▁när	-2698.0
ρή	-2699.0
▁tad	-2700.0
▁ovat	-2701.0
▁αλλά	-2702.0
ște	-2703.0
kar	-2704.0
▁niin	-2705.0
▁viņš	-2706.0
ljen	-2707.0
▁κάν	-2708.0
▁trans	-2709.0
ību	-2710.0
▁vain	-2711.0
▁Это	-2712.0
▁pří	-2713.0
ču	-2714.0
▁kul	-2715.0
ques	-2716.0
▁zas	-2717.0
▁они	-2718.0
atud	-2719.0
fici	-2720.0
ikt	-2721.0
▁його	-2722.0
▁video	-2723.0
▁disse	-2724.0
▁ins	-2725.0
▁Pa	-2726.0
ea	-2727.0
ūt	-2728.0
▁film	-2729.0
uw	-2730.0
▁via	-2731.0
änd	-2732.0
▁Ge	-2733.0
ines	-2734.0
рябва	-2735.0
anda	-2736.0
tal	-2737.0
agi	-2738.0
▁вони	-2739.0
chod	-2740.0
▁kaž	-2741.0
▁tego	-2742.0
клю	-2743.0
▁pan	-2744.0
rd	-2745.0
mal	-2746.0
amis	-2747.0
▁kli	-2748.0
▁muito	-2749.0
▁set	-2750.0
▁εξ	-2751.0
ции	-2752.0
вър	-2753.0
▁från	-2754.0
nym	-2755.0
kaz	-2756.0
nog	-2757.0
bra	-2758.0
íte	-2759.0
ке	-2760.0
▁jie	-2761.0
▁lig	-2762.0
ъде	-2763.0
ump	-2764.0
▁beh	-2765.0
ēja	-2766.0
▁dwar	-2767.0
▁jeho	-2768.0
pra	-2769.0
▁quel	-2770.0
▁три	-2771.0
▁fun	-2772.0
itate	-2773.0
emente	-2774.0
zzjoni	-2775.0
rei	-2776.0
▁ζ	-2777.0
lut	-2778.0
oto	-2779.0
har	-2780.0
▁Και	-2781.0
ře	-2782.0
ред	-2783.0
▁Sa	-2784.0
▁köz	-2785.0
▁või	-2786.0
▁które	-2787.0
вали	-2788.0
▁super	-2789.0
▁ļ	-2790.0
ża	-2791.0
▁Por	-2792.0
uti	-2793.0
▁доб	-2794.0
ções	-2795.0
▁Так	-2796.0
ży	-2797.0
inte	-2798.0
▁ні	-2799.0
able	-2800.0
reg	-2801.0
▁luc	-2802.0
ικό	-2803.0
▁At	-2804.0
▁á	-2805.0
▁deze	-2806.0
tid	-2807.0
▁turi	-2808.0
urde	-2809.0
▁оста	-2810.0
▁neb	-2811.0
nic	-2812.0
▁Dar	-2813.0
▁sist	-2814.0
nim	-2815.0
▁nel	-2816.0
car	-2817.0
▁euro	-2818.0
yan	-2819.0
▁aff	-2820.0
urt	-2821.0
три	-2822.0
▁vast	-2823.0
gr	-2824.0
ivo	-2825.0
▁blev	-2826.0
AA	-2827.0
▁які	-2828.0
čiau	-2829.0
▁Min	-2830.0
amp	-2831.0
▁което	-2832.0
▁zm	-2833.0
▁For	-2834.0
▁from	-2835.0
▁most	-2836.0
▁mir	-2837.0
που	-2838.0
▁amely	-2839.0
она	-2840.0
▁mô	-2841.0
ische	-2842.0
▁einen	-2843.0
sim	-2844.0
▁tym	-2845.0
▁Tas	-2846.0
▁nim	-2847.0
▁два	-2848.0
▁aber	-2849.0
мер	-2850.0
▁comme	-2851.0
▁zem	-2852.0
xt	-2853.0
lie	-2854.0
iki	-2855.0
ар	-2856.0
íme	-2857.0
▁tien	-2858.0
enden	-2859.0
fel	-2860.0
yen	-2861.0
▁inform	-2862.0
▁rend	-2863.0
ċi	-2864.0
dan	-2865.0
▁чу	-2866.0
▁cil	-2867.0
cket	-2868.0
▁util	-2869.0
aga	-2870.0
▁Per	-2871.0
ασ	-2872.0
▁sä	-2873.0
ция	-2874.0
▁Ž	-2875.0
▁zab	-2876.0
▁cos	-2877.0
żda	-2878.0
▁Ми	-2879.0
▁jew	-2880.0
▁tout	-2881.0
▁vēl	-2882.0
idade	-2883.0
zo	-2884.0
▁strat	-2885.0
▁dir	-2886.0
▁bila	-2887.0
itar	-2888.0
eket	-2889.0
ello	-2890.0
port	-2891.0
uten	-2892.0
δε	-2893.0
▁Su	-2894.0
uns	-2895.0
eft	-2896.0
▁fog	-2897.0
▁Ah	-2898.0
▁voi	-2899.0
hy	-2900.0
fen	-2901.0
śli	-2902.0
▁zak	-2903.0
iel	-2904.0
єте	-2905.0
erne	-2906.0
▁слу	-2907.0
▁kuin	-2908.0
iny	-2909.0
▁være	-2910.0
πω	-2911.0
ants	-2912.0
▁того	-2913.0
ього	-2914.0
▁nach	-2915.0
▁mutta	-2916.0
amb	-2917.0
▁oder	-2918.0
▁пер	-2919.0
▁Non	-2920.0
æn	-2921.0
itel	-2922.0
▁slu	-2923.0
▁Те	-2924.0
ellen	-2925.0
omen	-2926.0
▁svoj	-2927.0
ajú	-2928.0
вле	-2929.0
▁auch	-2930.0
umi	-2931.0
għu	-2932.0
out	-2933.0
chi	-2934.0
▁wird	-2935.0
▁ktoré	-2936.0
▁Das	-2937.0
▁jej	-2938.0
▁Amer	-2939.0
śmy	-2940.0
jek	-2941.0
klad	-2942.0
▁koh	-2943.0
pä	-2944.0
lag	-2945.0
▁Hu	-2946.0
utt	-2947.0
vent	-2948.0
ēm	-2949.0
▁loc	-2950.0
▁zin	-2951.0
▁але	-2952.0
tää	-2953.0
▁kaik	-2954.0
▁ima	-2955.0
over	-2956.0
μη	-2957.0
stru	-2958.0
vien	-2959.0
amas	-2960.0
isse	-2961.0
amen	-2962.0
ivat	-2963.0
áci	-2964.0
žen	-2965.0
▁acc	-2966.0
ode	-2967.0
▁entre	-2968.0
▁ville	-2969.0
▁sar	-2970.0
τική	-2971.0
ester	-2972.0
▁You	-2973.0
▁hade	-2974.0
taj	-2975.0
▁sti	-2976.0
tit	-2977.0
▁ties	-2978.0
▁Tr	-2979.0
▁tiegħu	-2980.0
nem	-2981.0
тому	-2982.0
obb	-2983.0
▁taf	-2984.0
vá	-2985.0
▁Ka	-2986.0
abil	-2987.0
▁kao	-2988.0
▁mens	-2989.0
▁Mis	-2990.0
iver	-2991.0
▁Dan	-2992.0
oga	-2993.0
ví	-2994.0
вать	-2995.0
hol	-2996.0
▁cli	-2997.0
han	-2998.0
▁pris	-2999.0
cher	-3000.0
кі	-3001.0
okat	-3002.0
jav	-3003.0
ted	-3004.0
cc	-3005.0
▁Ф	-3006.0
str	-3007.0
▁publi	-3008.0
▁nom	-3009.0
ną	-3010.0
▁our	-3011.0
▁skal	-3012.0
ové	-3013.0
ske	-3014.0
för	-3015.0
etti	-3016.0
▁vie	-3017.0
▁št	-3018.0
▁Con	-3019.0
▁lav	-3020.0
sak	-3021.0
kur	-3022.0
▁prob	-3023.0
ork	-3024.0
öt	-3025.0
▁keď	-3026.0
▁viņa	-3027.0
έρ	-3028.0
▁redu	-3029.0
odo	-3030.0
fr	-3031.0
▁sho	-3032.0
▁sve	-3033.0
chten	-3034.0
▁tror	-3035.0
▁arb	-3036.0
▁žel	-3037.0
▁dro	-3038.0
ματα	-3039.0
▁трябва	-3040.0
ves	-3041.0
▁tiet	-3042.0
▁Това	-3043.0
abb	-3044.0
ник	-3045.0
▁tiek	-3046.0
νω	-3047.0
▁bus	-3048.0
▁main	-3049.0
▁зро	-3050.0
inter	-3051.0
adas	-3052.0
ită	-3053.0
rai	-3054.0
ital	-3055.0
▁jsou	-3056.0
ób	-3057.0
▁få	-3058.0
▁вси	-3059.0
ця	-3060.0
amme	-3061.0
▁без	-3062.0
▁kir	-3063.0
▁jums	-3064.0
rž	-3065.0
хи	-3066.0
▁Ro	-3067.0
▁svoje	-3068.0
īg	-3069.0
▁pil	-3070.0
▁mie	-3071.0
▁ras	-3072.0
lin	-3073.0
▁тому	-3074.0
▁Ei	-3075.0
▁kann	-3076.0
īgi	-3077.0
▁foi	-3078.0
▁pow	-3079.0
éd	-3080.0
rze	-3081.0
▁laik	-3082.0
▁there	-3083.0
▁lie	-3084.0
amat	-3085.0
▁todos	-3086.0
▁ul	-3087.0
▁dou	-3088.0
▁Ku	-3089.0
▁informa	-3090.0
ked	-3091.0
ári	-3092.0
ētu	-3093.0
▁mint	-3094.0
λι	-3095.0
▁Les	-3096.0
kus	-3097.0
azione	-3098.0
▁prí	-3099.0
▁été	-3100.0
▁пот	-3101.0
лько	-3102.0
▁tudi	-3103.0
▁läh	-3104.0
olu	-3105.0
elijk	-3106.0
▁dod	-3107.0
▁mö	-3108.0
τητα	-3109.0
▁Ter	-3110.0
▁bħal	-3111.0
▁ση	-3112.0
ných	-3113.0
će	-3114.0
▁lan	-3115.0
cem	-3116.0
▁dla	-3117.0
▁pero	-3118.0
gar	-3119.0
chte	-3120.0
ents	-3121.0
▁vores	-3122.0
illä	-3123.0
ogra	-3124.0
▁které	-3125.0
enie	-3126.0
▁lin	-3127.0
▁kind	-3128.0
lament	-3129.0
▁когда	-3130.0
oup	-3131.0
▁dot	-3132.0
▁asta	-3133.0
▁X	-3134.0
▁fait	-3135.0
▁need	-3136.0
▁напра	-3137.0
ovať	-3138.0
▁Har	-3139.0
▁mid	-3140.0
▁fat	-3141.0
▁mel	-3142.0
iji	-3143.0
▁veel	-3144.0
ġa	-3145.0
▁sai	-3146.0
zie	-3147.0
ciones	-3148.0
kār	-3149.0
▁hen	-3150.0
tura	-3151.0
▁drž	-3152.0
▁Pri	-3153.0
▁nou	-3154.0
▁ner	-3155.0
ris	-3156.0
▁azt	-3157.0
▁wenn	-3158.0
ром	-3159.0
μό	-3160.0
▁Ele	-3161.0
▁сказа	-3162.0
рт	-3163.0
▁aktar	-3164.0
▁Em	-3165.0
▁rez	-3166.0
▁cum	-3167.0
edi	-3168.0
τού	-3169.0
тися	-3170.0
▁bude	-3171.0
heid	-3172.0
▁Ak	-3173.0
▁tol	-3174.0
ан	-3175.0
▁bek	-3176.0
δα	-3177.0
juk	-3178.0
nia	-3179.0
▁bara	-3180.0
ому	-3181.0
▁mult	-3182.0
ellä	-3183.0
ribu	-3184.0
ister	-3185.0
▁Wir	-3186.0
så	-3187.0
▁alebo	-3188.0
mat	-3189.0
idän	-3190.0
▁gli	-3191.0
kst	-3192.0
else	-3193.0
vers	-3194.0
▁prod	-3195.0
▁what	-3196.0
▁Εί	-3197.0
▁jih	-3198.0
ction	-3199.0
▁princip	-3200.0
▁ao	-3201.0
▁conc	-3202.0
ában	-3203.0
lem	-3204.0
▁боль	-3205.0
▁real	-3206.0
τυ	-3207.0
ным	-3208.0
▁John	-3209.0
▁meget	-3210.0
▁ili	-3211.0
▁more	-3212.0
▁kif	-3213.0
▁sit	-3214.0
antes	-3215.0
▁vara	-3216.0
▁lil	-3217.0
▁bardz	-3218.0
ejn	-3219.0
▁get	-3220.0
▁nebo	-3221.0
▁jā	-3222.0
▁Pre	-3223.0
▁Ab	-3224.0
▁zb	-3225.0
ujem	-3226.0
imą	-3227.0
jan	-3228.0
▁bis	-3229.0
вет	-3230.0
▁teh	-3231.0
▁ning	-3232.0
▁Ko	-3233.0
▁if	-3234.0
▁tagħna	-3235.0
▁syst	-3236.0
għa	-3237.0
tigt	-3238.0
▁aiz	-3239.0
kor	-3240.0
▁över	-3241.0
сля	-3242.0
szyst	-3243.0
SS	-3244.0
γα	-3245.0
kaan	-3246.0
elli	-3247.0
▁гра	-3248.0
jar	-3249.0
▁seu	-3250.0
ρισ	-3251.0
▁segu	-3252.0
▁hans	-3253.0
κο	-3254.0
iju	-3255.0
▁tied	-3256.0
ję	-3257.0
jas	-3258.0
▁Mi	-3259.0
▁тя	-3260.0
▁Ad	-3261.0
▁hod	-3262.0
μβ	-3263.0
▁θέ	-3264.0
hren	-3265.0
▁nez	-3266.0
рен	-3267.0
▁пи	-3268.0
▁zam	-3269.0
▁resp	-3270.0
▁ban	-3271.0
▁наши	-3272.0
hts	-3273.0
nou	-3274.0
žit	-3275.0
▁bru	-3276.0
▁Car	-3277.0
▁Ind	-3278.0
▁proces	-3279.0
ța	-3280.0
uo	-3281.0
фи	-3282.0
pat	-3283.0
▁Mais	-3284.0
▁všet	-3285.0
ksi	-3286.0
tern	-3287.0
▁män	-3288.0
ρέπει	-3289.0
▁вас	-3290.0
cti	-3291.0
zem	-3292.0
▁exist	-3293.0
▁kil	-3294.0
ake	-3295.0
iro	-3296.0
tain	-3297.0
jt	-3298.0
adi	-3299.0
фор	-3300.0
ling	-3301.0
▁gos	-3302.0
▁heeft	-3303.0
▁nuest	-3304.0
šč	-3305.0
aut	-3306.0
▁Το	-3307.0
▁plat	-3308.0
▁mijn	-3309.0
▁også	-3310.0
▁před	-3311.0
kli	-3312.0
▁rig	-3313.0
▁bre	-3314.0
▁ус	-3315.0
ző	-3316.0
ign	-3317.0
▁But	-3318.0
▁Ent	-3319.0
▁mí	-3320.0
▁ві	-3321.0
itas	-3322.0
▁hyv	-3323.0
▁vre	-3324.0
▁άλλ	-3325.0
▁essere	-3326.0
jal	-3327.0
υτό	-3328.0
▁forma	-3329.0
ogħ	-3330.0
mä	-3331.0
σουμε	-3332.0
▁saj	-3333.0
▁Ex	-3334.0
▁hon	-3335.0
▁jer	-3336.0
▁když	-3337.0
▁kül	-3338.0
зво	-3339.0
izi	-3340.0
▁test	-3341.0
▁Do	-3342.0
▁spre	-3343.0
chu	-3344.0
ємо	-3345.0
illi	-3346.0
▁moment	-3347.0
▁üt	-3348.0
▁port	-3349.0
pēc	-3350.0
▁επί	-3351.0
▁doll	-3352.0
asz	-3353.0
nego	-3354.0
▁your	-3355.0
▁biz	-3356.0
▁hem	-3357.0
▁aș	-3358.0
▁полу	-3359.0
▁fort	-3360.0
нии	-3361.0
lijk	-3362.0
▁stat	-3363.0
oso	-3364.0
▁face	-3365.0
▁біль	-3366.0
▁jekk	-3367.0
▁grande	-3368.0
ph	-3369.0
▁porque	-3370.0
ħa	-3371.0
lep	-3372.0
▁bę	-3373.0
▁Dob	-3374.0
öra	-3375.0
▁land	-3376.0
ilt	-3377.0
ėti	-3378.0
мы	-3379.0
▁mums	-3380.0
▁njeg	-3381.0
▁biti	-3382.0
vé	-3383.0
▁Od	-3384.0
biamo	-3385.0
▁anche	-3386.0
rot	-3387.0
рез	-3388.0
▁ó	-3389.0
ajā	-3390.0
▁tw	-3391.0
egen	-3392.0
isia	-3393.0
▁Ste	-3394.0
θεί	-3395.0
бле	-3396.0
▁czy	-3397.0
▁ec	-3398.0
▁кой	-3399.0
ikor	-3400.0
▁ani	-3401.0
▁дол	-3402.0
add	-3403.0
▁când	-3404.0
ūr	-3405.0
▁κατα	-3406.0
▁worden	-3407.0
lam	-3408.0
▁vas	-3409.0
▁прави	-3410.0
▁stra	-3411.0
jonijiet	-3412.0
▁És	-3413.0
itiv	-3414.0
szer	-3415.0
lov	-3416.0
▁tema	-3417.0
▁cette	-3418.0
▁eks	-3419.0
▁tor	-3420.0
voj	-3421.0
▁vě	-3422.0
▁bem	-3423.0
ск	-3424.0
▁compl	-3425.0
mm	-3426.0
prav	-3427.0
▁fer	-3428.0
▁hac	-3429.0
▁sat	-3430.0
тся	-3431.0
▁Ка	-3432.0
▁jin	-3433.0
▁zad	-3434.0
jor	-3435.0
▁Eu	-3436.0
▁sy	-3437.0
ener	-3438.0
jak	-3439.0
rib	-3440.0
▁gdy	-3441.0
zet	-3442.0
vin	-3443.0
▁ők	-3444.0
фе	-3445.0
ight	-3446.0
öd	-3447.0
▁mycket	-3448.0
ază	-3449.0
▁ø	-3450.0
ple	-3451.0
тра	-3452.0
▁fir	-3453.0
чески	-3454.0
▁lug	-3455.0
nan	-3456.0
éri	-3457.0
etta	-3458.0
▁zar	-3459.0
бли	-3460.0
▁ээ	-3461.0
▁jär	-3462.0
▁pare	-3463.0
▁Lu	-3464.0
ká	-3465.0
eden	-3466.0
▁bor	-3467.0
▁был	-3468.0
▁eles	-3469.0
ύτε	-3470.0
дь	-3471.0
▁ħa	-3472.0
▁dav	-3473.0
▁dacă	-3474.0
▁Au	-3475.0
▁natur	-3476.0
lt	-3477.0
▁Ac	-3478.0
▁molto	-3479.0
▁Br	-3480.0
▁glob	-3481.0
▁stand	-3482.0
ετε	-3483.0
τσι	-3484.0
▁απ	-3485.0
▁kw	-3486.0
kej	-3487.0
▁bal	-3488.0
urile	-3489.0
nis	-3490.0
▁kak	-3491.0
▁mad	-3492.0
▁nak	-3493.0
▁viet	-3494.0
▁mă	-3495.0
▁lang	-3496.0
iesz	-3497.0
▁nis	-3498.0
óó	-3499.0
▁gad	-3500.0
▁daudz	-3501.0
▁pros	-3502.0
▁toho	-3503.0
του	-3504.0
▁zg	-3505.0
▁oper	-3506.0
▁olen	-3507.0
,-	-3508.0
lav	-3509.0
▁zat	-3510.0
▁põ	-3511.0
ъм	-3512.0
▁ľ	-3513.0
ħseb	-3514.0
šen	-3515.0
ких	-3516.0
▁στα	-3517.0
▁best	-3518.0
▁fant	-3519.0
▁tempo	-3520.0
ġi	-3521.0
▁Мо	-3522.0
▁hor	-3523.0
▁était	-3524.0
▁timp	-3525.0
eder	-3526.0
ål	-3527.0
▁stan	-3528.0
▁andere	-3529.0
▁tamb	-3530.0
▁zw	-3531.0
▁meta	-3532.0
▁nije	-3533.0
ség	-3534.0
kä	-3535.0
νό	-3536.0
доб	-3537.0
съ	-3538.0
▁È	-3539.0
ды	-3540.0
šie	-3541.0
▁Але	-3542.0
▁myös	-3543.0
▁προσ	-3544.0
▁ord	-3545.0
▁skup	-3546.0
air	-3547.0
bién	-3548.0
▁след	-3549.0
ogu	-3550.0
▁pret	-3551.0
▁acest	-3552.0
▁той	-3553.0
čo	-3554.0
▁Med	-3555.0
urn	-3556.0
▁Ni	-3557.0
ence	-3558.0
ster	-3559.0
▁kienet	-3560.0
laus	-3561.0
▁jsme	-3562.0
▁mano	-3563.0
kan	-3564.0
kem	-3565.0
▁Á	-3566.0
▁hum	-3567.0
▁olla	-3568.0
ίο	-3569.0
ной	-3570.0
ком	-3571.0
▁viņi	-3572.0
▁Gr	-3573.0
▁kü	-3574.0
▁dien	-3575.0
▁осно	-3576.0
▁também	-3577.0
▁δύ	-3578.0
▁vše	-3579.0
вро	-3580.0
▁csak	-3581.0
sob	-3582.0
▁ļoti	-3583.0
▁Her	-3584.0
▁gå	-3585.0
тов	-3586.0
úú	-3587.0
▁Za	-3588.0
▁desc	-3589.0
amy	-3590.0
rob	-3591.0
▁där	-3592.0
niej	-3593.0
▁Hij	-3594.0
▁дуже	-3595.0
ender	-3596.0
aje	-3597.0
▁tij	-3598.0
▁време	-3599.0
elis	-3600.0
▁soci	-3601.0
▁sj	-3602.0
▁който	-3603.0
ké	-3604.0
▁Mor	-3605.0
▁știi	-3606.0
▁haar	-3607.0
col	-3608.0
▁apr	-3609.0
ondol	-3610.0
konom	-3611.0
бира	-3612.0
ningen	-3613.0
στη	-3614.0
▁ans	-3615.0
ulla	-3616.0
roj	-3617.0
▁μπορεί	-3618.0
tea	-3619.0
▁fakt	-3620.0
hor	-3621.0
azzjoni	-3622.0
ými	-3623.0
▁waren	-3624.0
ró	-3625.0
▁primer	-3626.0
▁gali	-3627.0
▁energ	-3628.0
μή	-3629.0
▁есть	-3630.0
раз	-3631.0
▁sõ	-3632.0
▁hur	-3633.0
īs	-3634.0
rag	-3635.0
üüd	-3636.0
▁ses	-3637.0
▁можете	-3638.0
ęs	-3639.0
▁Tā	-3640.0
μένο	-3641.0
▁ly	-3642.0
stav	-3643.0
▁sest	-3644.0
▁vál	-3645.0
▁Ob	-3646.0
usti	-3647.0
ycz	-3648.0
αααα	-3649.0
▁off	-3650.0
▁loro	-3651.0
▁πρό	-3652.0
anud	-3653.0
iera	-3654.0
▁proto	-3655.0
ham	-3656.0
ley	-3657.0
▁prá	-3658.0
▁about	-3659.0
▁questi	-3660.0
ekl	-3661.0
▁vam	-3662.0
pport	-3663.0
νή	-3664.0
▁ber	-3665.0
▁apie	-3666.0
▁moh	-3667.0
ņem	-3668.0
мя	-3669.0
▁няко	-3670.0
▁term	-3671.0
▁пі	-3672.0
▁cal	-3673.0
▁signi	-3674.0
pan	-3675.0
вся	-3676.0
нима	-3677.0
▁было	-3678.0
odi	-3679.0
ného	-3680.0
▁todo	-3681.0
jel	-3682.0
▁hä	-3683.0
δια	-3684.0
eng	-3685.0
стро	-3686.0
iß	-3687.0
ώρα	-3688.0
▁osob	-3689.0
ást	-3690.0
vy	-3691.0
▁inim	-3692.0
▁meie	-3693.0
vas	-3694.0
ħra	-3695.0
▁Δεν	-3696.0
▁також	-3697.0
▁wszyst	-3698.0
▁kle	-3699.0
▁Maar	-3700.0
ischen	-3701.0
ück	-3702.0
▁говори	-3703.0
ail	-3704.0
cije	-3705.0
ката	-3706.0
isesti	-3707.0
ød	-3708.0
atie	-3709.0
▁olyan	-3710.0
ρία	-3711.0
šanas	-3712.0
кт	-3713.0
▁verd	-3714.0
bes	-3715.0
ött	-3716.0
▁fal	-3717.0
▁ça	-3718.0
▁famil	-3719.0
▁poved	-3720.0
▁Sim	-3721.0
▁га	-3722.0
udi	-3723.0
γκ	-3724.0
▁Bar	-3725.0
iksi	-3726.0
oug	-3727.0
пол	-3728.0
▁Col	-3729.0
▁który	-3730.0
▁lõ	-3731.0
otre	-3732.0
▁pode	-3733.0
ára	-3734.0
▁Bu	-3735.0
▁Jis	-3736.0
▁koje	-3737.0
▁faire	-3738.0
гля	-3739.0
вання	-3740.0
ced	-3741.0
▁grand	-3742.0
hoz	-3743.0
жли	-3744.0
▁oč	-3745.0
▁Was	-3746.0
oon	-3747.0
ört	-3748.0
▁eso	-3749.0
▁conf	-3750.0
▁Ви	-3751.0
▁pove	-3752.0
ario	-3753.0
▁nagu	-3754.0
▁cilvē	-3755.0
▁hj	-3756.0
lic	-3757.0
чі	-3758.0
▁ці	-3759.0
inden	-3760.0
jd	-3761.0
▁sh	-3762.0
▁igen	-3763.0
τω	-3764.0
щото	-3765.0
▁tech	-3766.0
▁eh	-3767.0
▁Pero	-3768.0
▁tav	-3769.0
▁hvor	-3770.0
gg	-3771.0
▁také	-3772.0
▁abs	-3773.0
▁которые	-3774.0
žu	-3775.0
zę	-3776.0
лся	-3777.0
▁kop	-3778.0
▁können	-3779.0
▁miss	-3780.0
шу	-3781.0
jekt	-3782.0
▁παρα	-3783.0
▁було	-3784.0
itos	-3785.0
ále	-3786.0
abe	-3787.0
▁пу	-3788.0
ré	-3789.0
dzi	-3790.0
▁καθ	-3791.0
▁други	-3792.0
▁dak	-3793.0
▁nur	-3794.0
▁Lo	-3795.0
▁ye	-3796.0
▁jien	-3797.0
▁ř	-3798.0
ady	-3799.0
▁prim	-3800.0
iske	-3801.0
egu	-3802.0
рів	-3803.0
▁než	-3804.0
▁pier	-3805.0
▁vair	-3806.0
έν	-3807.0
▁Он	-3808.0
ieni	-3809.0
▁rest	-3810.0
dom	-3811.0
▁чо	-3812.0
ști	-3813.0
jiet	-3814.0
▁ang	-3815.0
змо	-3816.0
▁Aber	-3817.0
▁когато	-3818.0
of	-3819.0
kat	-3820.0
▁або	-3821.0
dje	-3822.0
▁él	-3823.0
ên	-3824.0
дей	-3825.0
▁mů	-3826.0
▁пе	-3827.0
▁preto	-3828.0
▁mno	-3829.0
bie	-3830.0
žete	-3831.0
▁έχει	-3832.0
kti	-3833.0
kså	-3834.0
stä	-3835.0
▁compr	-3836.0
кри	-3837.0
act	-3838.0
▁ref	-3839.0
▁був	-3840.0
▁habe	-3841.0
▁Він	-3842.0
▁wurde	-3843.0
▁myslím	-3844.0
ares	-3845.0
▁också	-3846.0
aties	-3847.0
▁byl	-3848.0
▁pit	-3849.0
▁delle	-3850.0
ube	-3851.0
otta	-3852.0
▁ple	-3853.0
▁word	-3854.0
▁вам	-3855.0
▁toim	-3856.0
ția	-3857.0
▁mūsu	-3858.0
uno	-3859.0
▁foarte	-3860.0
▁Θ	-3861.0
▁bare	-3862.0
▁знаете	-3863.0
▁ру	-3864.0
▁são	-3865.0
▁svar	-3866.0
ford	-3867.0
yw	-3868.0
æl	-3869.0
ody	-3870.0
▁être	-3871.0
øre	-3872.0
ures	-3873.0
jų	-3874.0
▁bio	-3875.0
▁τε	-3876.0
▁spo	-3877.0
▁rá	-3878.0
cas	-3879.0
▁denne	-3880.0
▁weet	-3881.0
dat	-3882.0
tes	-3883.0
usa	-3884.0
▁înt	-3885.0
ούν	-3886.0
▁mere	-3887.0
▁muut	-3888.0
arg	-3889.0
▁ευ	-3890.0
▁now	-3891.0
▁labai	-3892.0
öv	-3893.0
iner	-3894.0
jev	-3895.0
▁einem	-3896.0
ībā	-3897.0
▁vă	-3898.0
▁pel	-3899.0
gra	-3900.0
roz	-3901.0
▁rów	-3902.0
▁twe	-3903.0
čas	-3904.0
▁фи	-3905.0
▁zaj	-3906.0
liga	-3907.0
дите	-3908.0
▁ham	-3909.0
maz	-3910.0
nolog	-3911.0
ivel	-3912.0
oko	-3913.0
πάρχ	-3914.0
▁bin	-3915.0
▁Gre	-3916.0
▁prac	-3917.0
ovali	-3918.0
urg	-3919.0
▁Sh	-3920.0
chter	-3921.0
ním	-3922.0
stu	-3923.0
ров	-3924.0
▁Во	-3925.0
▁dobro	-3926.0
▁onder	-3927.0
▁organiz	-3928.0
zna	-3929.0
▁Quindi	-3930.0
sit	-3931.0
▁vse	-3932.0
ace	-3933.0
▁syn	-3934.0
▁szám	-3935.0
▁tej	-3936.0
▁casa	-3937.0
oved	-3938.0
▁minden	-3939.0
ay	-3940.0
atu	-3941.0
▁rob	-3942.0
▁deux	-3943.0
rom	-3944.0
▁sap	-3945.0
ój	-3946.0
бі	-3947.0
▁pus	-3948.0
▁would	-3949.0
сті	-3950.0
▁algo	-3951.0
lap	-3952.0
▁før	-3953.0
▁ges	-3954.0
▁dette	-3955.0
ppen	-3956.0
iausi	-3957.0
▁cri	-3958.0
riv	-3959.0
▁този	-3960.0
▁їх	-3961.0
▁vaik	-3962.0
▁cela	-3963.0
pla	-3964.0
▁cred	-3965.0
ху	-3966.0
essä	-3967.0
intre	-3968.0
▁onze	-3969.0
osto	-3970.0
▁fig	-3971.0
▁Nous	-3972.0
γά	-3973.0
▁думаю	-3974.0
nas	-3975.0
▁were	-3976.0
ică	-3977.0
ssä	-3978.0
▁Ό	-3979.0
idi	-3980.0
lura	-3981.0
σουν	-3982.0
▁drug	-3983.0
ree	-3984.0
▁οπο	-3985.0
том	-3986.0
εται	-3987.0
▁stato	-3988.0
▁gondol	-3989.0
cji	-3990.0
▁two	-3991.0
ші	-3992.0
▁sto	-3993.0
▁roku	-3994.0
din	-3995.0
rer	-3996.0
ivät	-3997.0
atta	-3998.0
pis	-3999.0
▁Fl	-4000.0
▁име	-4001.0
▁μπορού	-4002.0
▁deres	-4003.0
▁dell	-4004.0
▁kunnen	-4005.0
igi	-4006.0
μαι	-4007.0
ällä	-4008.0
▁njih	-4009.0
дела	-4010.0
▁Go	-4011.0
oria	-4012.0
▁fut	-4013.0
abar	-4014.0
▁visi	-4015.0
ъъ	-4016.0
ota	-4017.0
țin	-4018.0
▁Di	-4019.0
▁vill	-4020.0
▁tagħhom	-4021.0
ļu	-4022.0
▁ftit	-4023.0
▁Mutta	-4024.0
ności	-4025.0
ijos	-4026.0
▁pesso	-4027.0
īv	-4028.0
▁lát	-4029.0
▁diese	-4030.0
öl	-4031.0
ží	-4032.0
стве	-4033.0
▁odp	-4034.0
▁pole	-4035.0
φα	-4036.0
enia	-4037.0
▁Ein	-4038.0
▁hänen	-4039.0
akse	-4040.0
vän	-4041.0
▁áll	-4042.0
ême	-4043.0
enas	-4044.0
bin	-4045.0
▁Os	-4046.0
▁think	-4047.0
▁nod	-4048.0
ary	-4049.0
sel	-4050.0
ions	-4051.0
▁dėl	-4052.0
bat	-4053.0
cze	-4054.0
▁dva	-4055.0
▁suur	-4056.0
▁oss	-4057.0
▁prv	-4058.0
▁which	-4059.0
▁realmente	-4060.0
nú	-4061.0
buie	-4062.0
▁exper	-4063.0
▁despre	-4064.0
ξη	-4065.0
▁kit	-4066.0
oit	-4067.0
ws	-4068.0
ăt	-4069.0
λό	-4070.0
▁mūsų	-4071.0
▁Taigi	-4072.0
▁lim	-4073.0
▁san	-4074.0
▁treb	-4075.0
тер	-4076.0
ric	-4077.0
▁Ма	-4078.0
hel	-4079.0
ība	-4080.0
▁bý	-4081.0
▁Als	-4082.0
▁esto	-4083.0
pas	-4084.0
vait	-4085.0
▁gew	-4086.0
astă	-4087.0
▁Ω	-4088.0
▁uv	-4089.0
▁vám	-4090.0
▁tiegħi	-4091.0
ron	-4092.0
▁иска	-4093.0
áb	-4094.0
▁их	-4095.0
gram	-4096.0
▁naud	-4097.0
▁speci	-4098.0
▁zav	-4099.0
▁tren	-4100.0
тель	-4101.0
iser	-4102.0
▁minut	-4103.0
κι	-4104.0
▁einer	-4105.0
▁kõik	-4106.0
▁ци	-4107.0
▁daž	-4108.0
▁съм	-4109.0
▁him	-4110.0
▁memb	-4111.0
зы	-4112.0
cin	-4113.0
esen	-4114.0
nega	-4115.0
oten	-4116.0
▁cosa	-4117.0
δώ	-4118.0
▁κατά	-4119.0
kkor	-4120.0
▁lehet	-4121.0
▁their	-4122.0
itor	-4123.0
▁havde	-4124.0
▁pir	-4125.0
▁αυ	-4126.0
стра	-4127.0
▁bine	-4128.0
▁Ke	-4129.0
▁Som	-4130.0
▁sano	-4131.0
lia	-4132.0
▁time	-4133.0
esc	-4134.0
▁Tom	-4135.0
▁käyt	-4136.0
гла	-4137.0
▁jau	-4138.0
▁vás	-4139.0
dar	-4140.0
▁bene	-4141.0
fs	-4142.0
κολ	-4143.0
▁väga	-4144.0
hem	-4145.0
▁nego	-4146.0
▁them	-4147.0
▁tule	-4148.0
zik	-4149.0
eter	-4150.0
zin	-4151.0
▁chc	-4152.0
▁palju	-4153.0
nosť	-4154.0
aba	-4155.0
ird	-4156.0
nad	-4157.0
cej	-4158.0
▁пове	-4159.0
egi	-4160.0
▁ω	-4161.0
som	-4162.0
▁ką	-4163.0
▁meer	-4164.0
▁ден	-4165.0
υσ	-4166.0
ské	-4167.0
▁сме	-4168.0
rok	-4169.0
ίνει	-4170.0
▁uno	-4171.0
▁wel	-4172.0
▁senti	-4173.0
qa	-4174.0
▁помо	-4175.0
▁jotka	-4176.0
īm	-4177.0
ool	-4178.0
▁ljudi	-4179.0
▁ér	-4180.0
▁lub	-4181.0
▁υπο	-4182.0
▁much	-4183.0
teri	-4184.0
▁aug	-4185.0
▁ces	-4186.0
ople	-4187.0
tam	-4188.0
line	-4189.0
▁bei	-4190.0
▁geen	-4191.0
дат	-4192.0
undo	-4193.0
▁naz	-4194.0
ючи	-4195.0
▁üks	-4196.0
▁ж	-4197.0
tere	-4198.0
▁ри	-4199.0
erna	-4200.0
▁sid	-4201.0
▁πρέπει	-4202.0
шен	-4203.0
▁эти	-4204.0
ring	-4205.0
стоя	-4206.0
▁koll	-4207.0
▁possi	-4208.0
▁przez	-4209.0
▁naše	-4210.0
isin	-4211.0
▁mån	-4212.0
▁vlast	-4213.0
▁amb	-4214.0
▁отно	-4215.0
fik	-4216.0
▁í	-4217.0
▁még	-4218.0
зможно	-4219.0
irt	-4220.0
сет	-4221.0
▁stru	-4222.0
▁tipo	-4223.0
▁esper	-4224.0
▁μό	-4225.0
▁zou	-4226.0
▁сте	-4227.0
▁Той	-4228.0
▁tit	-4229.0
▁πρα	-4230.0
▁тре	-4231.0
▁Mislim	-4232.0
lé	-4233.0
ök	-4234.0
ittä	-4235.0
ají	-4236.0
▁там	-4237.0
▁zal	-4238.0
imal	-4239.0
▁espe	-4240.0
▁iesp	-4241.0
ιδ	-4242.0
зе	-4243.0
pak	-4244.0
avez	-4245.0
▁defin	-4246.0
app	-4247.0
▁dog	-4248.0
▁Pe	-4249.0
owie	-4250.0
▁Mon	-4251.0
▁Kas	-4252.0
▁jel	-4253.0
▁към	-4254.0
лно	-4255.0
▁од	-4256.0
▁hvad	-4257.0
gov	-4258.0
isz	-4259.0
owe	-4260.0
▁люди	-4261.0
ствен	-4262.0
▁ment	-4263.0
▁precis	-4264.0
ño	-4265.0
▁savu	-4266.0
▁бъде	-4267.0
▁Sam	-4268.0
▁тези	-4269.0
▁selv	-4270.0
com	-4271.0
▁may	-4272.0
arna	-4273.0
▁úgy	-4274.0
ujú	-4275.0
ким	-4276.0
anden	-4277.0
▁Huwa	-4278.0
▁nagyon	-4279.0
æt	-4280.0
▁Kui	-4281.0
▁tista	-4282.0
▁Pol	-4283.0
▁Europe	-4284.0
▁вър	-4285.0
▁также	-4286.0
tag	-4287.0
▁muy	-4288.0
нг	-4289.0
isch	-4290.0
рата	-4291.0
▁some	-4292.0
vod	-4293.0
ibt	-4294.0
pus	-4295.0
▁сло	-4296.0
▁Pod	-4297.0
cional	-4298.0
λει	-4299.0
▁če	-4300.0
rast	-4301.0
чень	-4302.0
▁red	-4303.0
▁redz	-4304.0
▁ktorý	-4305.0
▁got	-4306.0
▁mitä	-4307.0
ms	-4308.0
pă	-4309.0
ijas	-4310.0
▁Então	-4311.0
▁comun	-4312.0
onna	-4313.0
▁ihr	-4314.0
прав	-4315.0
мент	-4316.0
ală	-4317.0
jeb	-4318.0
▁ils	-4319.0
▁який	-4320.0
▁Egy	-4321.0
▁tiegħek	-4322.0
▁meu	-4323.0
tev	-4324.0
▁Des	-4325.0
μπ	-4326.0
▁viel	-4327.0
▁cost	-4328.0
▁równie	-4329.0
rac	-4330.0
ків	-4331.0
▁viņu	-4332.0
▁kurie	-4333.0
lič	-4334.0
▁Mu	-4335.0
▁elő	-4336.0
▁when	-4337.0
▁пробле	-4338.0
стви	-4339.0
▁teraz	-4340.0
▁Ol	-4341.0
лы	-4342.0
lab	-4343.0
čių	-4344.0
press	-4345.0
▁fran	-4346.0
▁Щ	-4347.0
▁klas	-4348.0
нието	-4349.0
▁kons	-4350.0
▁aceste	-4351.0
▁result	-4352.0
▁kri	-4353.0
▁sok	-4354.0
▁dintre	-4355.0
ęp	-4356.0
▁který	-4357.0
ψη	-4358.0
▁kde	-4359.0
▁ain	-4360.0
▁zag	-4361.0
бно	-4362.0
lige	-4363.0
▁nei	-4364.0
▁noch	-4365.0
▁popul	-4366.0
▁Li	-4367.0
пита	-4368.0
▁Jed	-4369.0
▁très	-4370.0
▁годи	-4371.0
▁dest	-4372.0
rin	-4373.0
▁want	-4374.0
mun	-4375.0
avat	-4376.0
▁līdz	-4377.0
▁ember	-4378.0
hux	-4379.0
▁hacer	-4380.0
▁propri	-4381.0
qui	-4382.0
▁Om	-4383.0
▁Бо	-4384.0
▁ast	-4385.0
▁mislim	-4386.0
has	-4387.0
rea	-4388.0
▁lok	-4389.0
▁Pot	-4390.0
▁Los	-4391.0
▁Este	-4392.0
▁δε	-4393.0
▁difer	-4394.0
▁autom	-4395.0
ėt	-4396.0
▁cir	-4397.0
▁noget	-4398.0
▁ekonom	-4399.0
adz	-4400.0
yy	-4401.0
ciju	-4402.0
▁czas	-4403.0
▁prot	-4404.0
▁momento	-4405.0
лан	-4406.0
▁ră	-4407.0
▁τέ	-4408.0
рите	-4409.0
itte	-4410.0
▁каза	-4411.0
▁vär	-4412.0
бити	-4413.0
ones	-4414.0
▁Val	-4415.0
ieren	-4416.0
ják	-4417.0
ktor	-4418.0
▁doen	-4419.0
▁если	-4420.0
▁lucru	-4421.0
άρ	-4422.0
rač	-4423.0
ół	-4424.0
▁jas	-4425.0
ільки	-4426.0
xi	-4427.0
poi	-4428.0
▁буду	-4429.0
▁ако	-4430.0
▁transp	-4431.0
ції	-4432.0
atur	-4433.0
▁дей	-4434.0
▁doar	-4435.0
▁bardzo	-4436.0
▁perché	-4437.0
χα	-4438.0
aux	-4439.0
▁fot	-4440.0
ście	-4441.0
▁zur	-4442.0
▁мене	-4443.0
▁potreb	-4444.0
▁zich	-4445.0
igh	-4446.0
▁pró	-4447.0
▁York	-4448.0
iog	-4449.0
▁dus	-4450.0
▁liet	-4451.0
▁всички	-4452.0
▁nen	-4453.0
▁finns	-4454.0
▁jeden	-4455.0
▁mich	-4456.0
▁amikor	-4457.0
тно	-4458.0
▁Така	-4459.0
▁posto	-4460.0
▁również	-4461.0
pend	-4462.0
▁cuando	-4463.0
▁tir	-4464.0
gin	-4465.0
▁Ger	-4466.0
бра	-4467.0
jes	-4468.0
▁stad	-4469.0
▁sik	-4470.0
rzy	-4471.0
▁há	-4472.0
▁égal	-4473.0
▁pes	-4474.0
▁serv	-4475.0
uz	-4476.0
used	-4477.0
▁Kun	-4478.0
▁între	-4479.0
вто	-4480.0
ная	-4481.0
ować	-4482.0
ward	-4483.0
▁lis	-4484.0
▁lihts	-4485.0
δή	-4486.0
▁ami	-4487.0
▁tän	-4488.0
▁hely	-4489.0
ador	-4490.0
tais	-4491.0
▁ons	-4492.0
▁она	-4493.0
lasti	-4494.0
▁quer	-4495.0
▁fazer	-4496.0
хме	-4497.0
idades	-4498.0
▁hvis	-4499.0
▁într	-4500.0
▁Taip	-4501.0
▁inten	-4502.0
det	-4503.0
σία	-4504.0
aria	-4505.0
▁pirm	-4506.0
▁вона	-4507.0
mos	-4508.0
▁îm	-4509.0
▁Pok	-4510.0
ξει	-4511.0
ních	-4512.0
▁ble	-4513.0
▁ī	-4514.0
▁работа	-4515.0
кре	-4516.0
▁past	-4517.0
cause	-4518.0
▁Λ	-4519.0
ято	-4520.0
jali	-4521.0
▁Don	-4522.0
▁she	-4523.0
uer	-4524.0
ænd	-4525.0
тите	-4526.0
bbli	-4527.0
▁jon	-4528.0
▁τό	-4529.0
onder	-4530.0
▁vá	-4531.0
▁câ	-4532.0
▁през	-4533.0
▁notre	-4534.0
ait	-4535.0
ρου	-4536.0
дер	-4537.0
robi	-4538.0
▁investi	-4539.0
kim	-4540.0
вам	-4541.0
δη	-4542.0
▁ċ	-4543.0
ées	-4544.0
ээээ	-4545.0
▁actu	-4546.0
▁reik	-4547.0
▁hanno	-4548.0
abel	-4549.0
idos	-4550.0
quer	-4551.0
▁väh	-4552.0
▁обра	-4553.0
▁prote	-4554.0
▁également	-4555.0
πη	-4556.0
▁eng	-4557.0
▁göra	-4558.0
▁Viņš	-4559.0
нен	-4560.0
▁än	-4561.0
▁protože	-4562.0
▁mik	-4563.0
ily	-4564.0
estä	-4565.0
▁Mus	-4566.0
▁priv	-4567.0
ují	-4568.0
zel	-4569.0
▁prop	-4570.0
βα	-4571.0
ätkö	-4572.0
▁mensen	-4573.0
dem	-4574.0
νομ	-4575.0
ames	-4576.0
▁zosta	-4577.0
EEEEEEEE	-4578.0
▁durante	-4579.0
ao	-4580.0
▁вико	-4581.0
▁liber	-4582.0
▁domāju	-4583.0
▁Як	-4584.0
ges	-4585.0
▁αυτή	-4586.0
ása	-4587.0
▁ξέ	-4588.0
▁Rob	-4589.0
▁рас	-4590.0
▁меня	-4591.0
пі	-4592.0
nit	-4593.0
raj	-4594.0
рова	-4595.0
▁bro	-4596.0
▁oprav	-4597.0
▁До	-4598.0
▁Tam	-4599.0
▁ela	-4600.0
▁kaj	-4601.0
▁wordt	-4602.0
vr	-4603.0
▁tě	-4604.0
▁boli	-4605.0
▁eg	-4606.0
łu	-4607.0
▁її	-4608.0
▁очень	-4609.0
vari	-4610.0
▁pav	-4611.0
▁Ve	-4612.0
▁vaj	-4613.0
▁avons	-4614.0
etzt	-4615.0
idas	-4616.0
▁ты	-4617.0
pec	-4618.0
▁bon	-4619.0
▁jagħ	-4620.0
▁pretože	-4621.0
▁един	-4622.0
ίε	-4623.0
▁рі	-4624.0
imento	-4625.0
mă	-4626.0
tik	-4627.0
olla	-4628.0
▁Kat	-4629.0
▁kre	-4630.0
▁darb	-4631.0
cat	-4632.0
▁Οι	-4633.0
▁been	-4634.0
łe	-4635.0
▁Você	-4636.0
▁több	-4637.0
▁Про	-4638.0
anta	-4639.0
fatt	-4640.0
▁být	-4641.0
koz	-4642.0
ωωωω	-4643.0
▁Nä	-4644.0
▁cen	-4645.0
fica	-4646.0
▁тази	-4647.0
uses	-4648.0
▁ziniet	-4649.0
anza	-4650.0
aient	-4651.0
aren	-4652.0
elik	-4653.0
▁forts	-4654.0
▁Αυτό	-4655.0
▁nás	-4656.0
▁pää	-4657.0
▁akkor	-4658.0
što	-4659.0
▁sabe	-4660.0
▁pär	-4661.0
▁koska	-4662.0
ника	-4663.0
▁mehr	-4664.0
▁него	-4665.0
гле	-4666.0
ajte	-4667.0
▁rem	-4668.0
▁якщо	-4669.0
▁strateg	-4670.0
eksi	-4671.0
▁lik	-4672.0
voir	-4673.0
▁prima	-4674.0
fon	-4675.0
▁būti	-4676.0
▁even	-4677.0
▁život	-4678.0
▁maž	-4679.0
▁people	-4680.0
τρο	-4681.0
▁Reg	-4682.0
▁għa	-4683.0
öm	-4684.0
▁Chr	-4685.0
▁πραγμα	-4686.0
▁Kai	-4687.0
▁tú	-4688.0
aste	-4689.0
▁прои	-4690.0
kay	-4691.0
▁kod	-4692.0
▁lag	-4693.0
▁tega	-4694.0
▁nekaj	-4695.0
▁Jak	-4696.0
▁dzie	-4697.0
▁hekk	-4698.0
▁Ten	-4699.0
▁cit	-4700.0
ră	-4701.0
ēju	-4702.0
▁Va	-4703.0
šim	-4704.0
▁cur	-4705.0
▁who	-4706.0
āl	-4707.0
▁podob	-4708.0
▁Singapur	-4709.0
▁Singapore	-4710.0
▁sli	-4711.0
▁consider	-4712.0
ład	-4713.0
▁cui	-4714.0
▁pis	-4715.0
▁amer	-4716.0
▁essa	-4717.0
▁koja	-4718.0
▁werd	-4719.0
кой	-4720.0
▁mä	-4721.0
▁Ра	-4722.0
▁Europa	-4723.0
▁sud	-4724.0
λώ	-4725.0
σαν	-4726.0
▁гру	-4727.0
▁więc	-4728.0
kie	-4729.0
stvo	-4730.0
▁versch	-4731.0
itan	-4732.0
▁kienu	-4733.0
ними	-4734.0
▁която	-4735.0
mest	-4736.0
med	-4737.0
▁malo	-4738.0
▁υπάρχ	-4739.0
▁vraiment	-4740.0
alen	-4741.0
▁aux	-4742.0
kow	-4743.0
▁мне	-4744.0
▁importante	-4745.0
ικο	-4746.0
▁dif	-4747.0
▁сдела	-4748.0
ya	-4749.0
liv	-4750.0
▁alc	-4751.0
▁suo	-4752.0
▁funk	-4753.0
▁here	-4754.0
▁detta	-4755.0
rik	-4756.0
σετε	-4757.0
éc	-4758.0
όν	-4759.0
тели	-4760.0
▁fav	-4761.0
tige	-4762.0
▁jen	-4763.0
▁sek	-4764.0
▁dim	-4765.0
▁доста	-4766.0
juč	-4767.0
▁tiem	-4768.0
σσ	-4769.0
▁sent	-4770.0
▁visu	-4771.0
▁hv	-4772.0
▁cl	-4773.0
cord	-4774.0
▁oleks	-4775.0
▁már	-4776.0
γή	-4777.0
imme	-4778.0
▁această	-4779.0
ule	-4780.0
υνα	-4781.0
▁cele	-4782.0
▁apro	-4783.0
▁¡	-4784.0
esa	-4785.0
ман	-4786.0
гі	-4787.0
▁disk	-4788.0
▁όταν	-4789.0
▁άν	-4790.0
▁suc	-4791.0
▁use	-4792.0
▁žm	-4793.0
▁jedn	-4794.0
▁nella	-4795.0
cil	-4796.0
▁-	-4797.0
καν	-4798.0
elor	-4799.0
▁exc	-4800.0
▁svet	-4801.0
▁simpl	-4802.0
χή	-4803.0
▁δύο	-4804.0
▁vendar	-4805.0
дов	-4806.0
▁δη	-4807.0
▁dzi	-4808.0
▁donc	-4809.0
▁kult	-4810.0
nut	-4811.0
áme	-4812.0
▁им	-4813.0
▁bħ	-4814.0
▁над	-4815.0
SA	-4816.0
πί	-4817.0
rim	-4818.0
▁arm	-4819.0
▁Как	-4820.0
▁vairāk	-4821.0
▁Ú	-4822.0
ots	-4823.0
▁φο	-4824.0
dział	-4825.0
▁kuul	-4826.0
▁kanssa	-4827.0
iert	-4828.0
τρα	-4829.0
minist	-4830.0
oper	-4831.0
▁ves	-4832.0
▁modo	-4833.0
▁tkun	-4834.0
▁пока	-4835.0
вор	-4836.0
ном	-4837.0
inge	-4838.0
▁ann	-4839.0
▁așa	-4840.0
▁nau	-4841.0
▁rezult	-4842.0
▁būt	-4843.0
▁lev	-4844.0
issen	-4845.0
apt	-4846.0
▁više	-4847.0
μι	-4848.0
▁быть	-4849.0
ók	-4850.0
▁iżda	-4851.0
że	-4852.0
īja	-4853.0
▁Αλλά	-4854.0
lub	-4855.0
▁ya	-4856.0
▁hos	-4857.0
▁них	-4858.0
istas	-4859.0
ót	-4860.0
fol	-4861.0
▁κο	-4862.0
▁ľud	-4863.0
ência	-4864.0
▁добре	-4865.0
uts	-4866.0
▁Jah	-4867.0
▁Ed	-4868.0
▁suis	-4869.0
čnosti	-4870.0
чай	-4871.0
uter	-4872.0
▁byť	-4873.0
▁Tämä	-4874.0
▁veľmi	-4875.0
ož	-4876.0
▁Kan	-4877.0
▁elle	-4878.0
▁siitä	-4879.0
циа	-4880.0
auc	-4881.0
▁toh	-4882.0
▁déc	-4883.0
▁sei	-4884.0
▁ħaġa	-4885.0
▁через	-4886.0
ism	-4887.0
▁ev	-4888.0
▁ži	-4889.0
▁kus	-4890.0
bagħ	-4891.0
▁vår	-4892.0
▁nich	-4893.0
▁econom	-4894.0
ates	-4895.0
▁doc	-4896.0
▁gör	-4897.0
▁tart	-4898.0
▁ust	-4899.0
▁vienkār	-4900.0
▁amit	-4901.0
▁будет	-4902.0
▁también	-4903.0
ror	-4904.0
рта	-4905.0
aa	-4906.0
кого	-4907.0
▁Tod	-4908.0
▁Tur	-4909.0
▁był	-4910.0
▁jäl	-4911.0
▁нам	-4912.0
▁вели	-4913.0
qs	-4914.0
ög	-4915.0
▁trebuie	-4916.0
▁tin	-4917.0
▁όπω	-4918.0
ering	-4919.0
рти	-4920.0
▁pam	-4921.0
▁στον	-4922.0
rab	-4923.0
▁šo	-4924.0
▁tat	-4925.0
▁gospod	-4926.0
стина	-4927.0
▁Ih	-4928.0
▁Não	-4929.0
φή	-4930.0
ách	-4931.0
жна	-4932.0
▁Dak	-4933.0
▁dre	-4934.0
▁mogu	-4935.0
άζ	-4936.0
▁rod	-4937.0
▁kollha	-4938.0
šn	-4939.0
▁vec	-4940.0
▁každ	-4941.0
▁dessa	-4942.0
uró	-4943.0
was	-4944.0
elij	-4945.0
▁bili	-4946.0
▁sehr	-4947.0
utat	-4948.0
lej	-4949.0
▁σύ	-4950.0
▁Jos	-4951.0
▁bit	-4952.0
ři	-4953.0
elles	-4954.0
pol	-4955.0
▁sna	-4956.0
ised	-4957.0
▁Vous	-4958.0
▁μετα	-4959.0
▁problema	-4960.0
▁andra	-4961.0
▁bun	-4962.0
stand	-4963.0
▁helt	-4964.0
▁constru	-4965.0
▁lihtsalt	-4966.0
▁log	-4967.0
▁frem	-4968.0
plo	-4969.0
▁hoe	-4970.0
▁into	-4971.0
▁Ü	-4972.0
▁ακ	-4973.0
kte	-4974.0
▁uk	-4975.0
jau	-4976.0
▁Ce	-4977.0
▁nyt	-4978.0
▁πιο	-4979.0
▁very	-4980.0
▁цього	-4981.0
ex	-4982.0
▁soll	-4983.0
▁going	-4984.0
▁sempli	-4985.0
ämän	-4986.0
▁lep	-4987.0
▁εδώ	-4988.0
▁välja	-4989.0
sin	-4990.0
тен	-4991.0
▁gam	-4992.0
▁Зна	-4993.0
▁prem	-4994.0
▁szeret	-4995.0
ést	-4996.0
над	-4997.0
umus	-4998.0
▁går	-4999.0
▁jog	-5000.0
▁ді	-5001.0
▁vys	-5002.0
ară	-5003.0
ños	-5004.0
jam	-5005.0
zni	-5006.0
inė	-5007.0
▁ing	-5008.0
▁Deci	-5009.0
▁peut	-5010.0
▁Ph	-5011.0
estu	-5012.0
▁moet	-5013.0
στα	-5014.0
▁Or	-5015.0
▁preg	-5016.0
▁Мы	-5017.0
obil	-5018.0
țion	-5019.0
▁запо	-5020.0
ній	-5021.0
▁My	-5022.0
▁prez	-5023.0
▁får	-5024.0
▁осо	-5025.0
▁poten	-5026.0
ħed	-5027.0
▁Се	-5028.0
▁mok	-5029.0
ivi	-5030.0
pie	-5031.0
iset	-5032.0
▁täh	-5033.0
зі	-5034.0
▁siin	-5035.0
▁один	-5036.0
ную	-5037.0
għid	-5038.0
▁Mēs	-5039.0
▁tikai	-5040.0
▁Ш	-5041.0
rau	-5042.0
зда	-5043.0
кто	-5044.0
▁Είναι	-5045.0
emi	-5046.0
erea	-5047.0
▁Kar	-5048.0
▁στι	-5049.0
▁вер	-5050.0
▁Å	-5051.0
äng	-5052.0
ųjų	-5053.0
mien	-5054.0
▁moje	-5055.0
тів	-5056.0
▁arv	-5057.0
▁unter	-5058.0
▁due	-5059.0
▁tel	-5060.0
▁mani	-5061.0
īgs	-5062.0
лаго	-5063.0
▁дела	-5064.0
▁tanto	-5065.0
▁otr	-5066.0
▁wil	-5067.0
▁interess	-5068.0
▁ehm	-5069.0
cker	-5070.0
ds	-5071.0
ful	-5072.0
▁deb	-5073.0
ungs	-5074.0
▁σημα	-5075.0
zza	-5076.0
γρα	-5077.0
▁μη	-5078.0
aszt	-5079.0
ossa	-5080.0
▁fond	-5081.0
pin	-5082.0
▁mare	-5083.0
▁måste	-5084.0
τώ	-5085.0
▁ги	-5086.0
▁Char	-5087.0
fü	-5088.0
už	-5089.0
ură	-5090.0
atti	-5091.0
jeme	-5092.0
▁nagħ	-5093.0
▁grund	-5094.0
▁dô	-5095.0
▁así	-5096.0
▁disc	-5097.0
▁компа	-5098.0
ían	-5099.0
▁hawn	-5100.0
▁durch	-5101.0
▁univers	-5102.0
▁ry	-5103.0
▁Ako	-5104.0
▁Bro	-5105.0
▁then	-5106.0
▁weiß	-5107.0
bagħad	-5108.0
▁fă	-5109.0
▁takže	-5110.0
▁politi	-5111.0
▁való	-5112.0
oare	-5113.0
▁estava	-5114.0
rak	-5115.0
▁Tu	-5116.0
żi	-5117.0
hmen	-5118.0
▁interes	-5119.0
▁ket	-5120.0
▁mell	-5121.0
ory	-5122.0
rum	-5123.0
▁minu	-5124.0
▁ef	-5125.0
fu	-5126.0
kla	-5127.0
▁ло	-5128.0
▁regul	-5129.0
▁its	-5130.0
øl	-5131.0
śl	-5132.0
ème	-5133.0
▁új	-5134.0
inių	-5135.0
▁powie	-5136.0
▁rag	-5137.0
▁хоро	-5138.0
▁paljon	-5139.0
▁tiesiog	-5140.0
heit	-5141.0
▁veliko	-5142.0
ape	-5143.0
hand	-5144.0
▁alles	-5145.0
▁людей	-5146.0
▁Mad	-5147.0
▁πρά	-5148.0
▁všech	-5149.0
mission	-5150.0
adu	-5151.0
▁Fil	-5152.0
▁mun	-5153.0
▁Mc	-5154.0
aff	-5155.0
▁rom	-5156.0
atori	-5157.0
λω	-5158.0
oden	-5159.0
▁Áno	-5160.0
▁noast	-5161.0
avi	-5162.0
▁kart	-5163.0
cias	-5164.0
▁bör	-5165.0
▁vri	-5166.0
ání	-5167.0
itud	-5168.0
onte	-5169.0
ében	-5170.0
▁ren	-5171.0
▁час	-5172.0
▁Miss	-5173.0
▁fram	-5174.0
duc	-5175.0
▁vak	-5176.0
iente	-5177.0
▁επίση	-5178.0
dę	-5179.0
дъл	-5180.0
▁trab	-5181.0
alu	-5182.0
тив	-5183.0
▁ří	-5184.0
ture	-5185.0
▁Tag	-5186.0
гна	-5187.0
▁prov	-5188.0
▁encont	-5189.0
óg	-5190.0
elő	-5191.0
lja	-5192.0
inta	-5193.0
ονται	-5194.0
▁gibt	-5195.0
▁sitä	-5196.0
▁fre	-5197.0
λύτε	-5198.0
▁sis	-5199.0
▁stvari	-5200.0
åt	-5201.0
ress	-5202.0
pper	-5203.0
▁Vai	-5204.0
▁spus	-5205.0
▁votre	-5206.0
▁kaikki	-5207.0
ню	-5208.0
šanu	-5209.0
šli	-5210.0
▁lugar	-5211.0
▁Cu	-5212.0
вропе	-5213.0
▁spor	-5214.0
ână	-5215.0
▁също	-5216.0
dev	-5217.0
▁ισ	-5218.0
▁būtu	-5219.0
▁così	-5220.0
▁pense	-5221.0
▁questa	-5222.0
ison	-5223.0
лага	-5224.0
▁rze	-5225.0
▁πό	-5226.0
ange	-5227.0
tima	-5228.0
▁vert	-5229.0
omis	-5230.0
▁πάν	-5231.0
▁cres	-5232.0
ště	-5233.0
▁ξε	-5234.0
zien	-5235.0
▁tyl	-5236.0
▁upor	-5237.0
▁indust	-5238.0
oh	-5239.0
nov	-5240.0
wij	-5241.0
▁были	-5242.0
▁kunne	-5243.0
лее	-5244.0
▁гла	-5245.0
wel	-5246.0
цен	-5247.0
▁át	-5248.0
cijas	-5249.0
нес	-5250.0
ką	-5251.0
rait	-5252.0
рно	-5253.0
▁neces	-5254.0
▁ped	-5255.0
▁dann	-5256.0
▁mert	-5257.0
▁vida	-5258.0
▁situa	-5259.0
▁sempre	-5260.0
▁abbiamo	-5261.0
сле	-5262.0
nies	-5263.0
▁być	-5264.0
▁jego	-5265.0
▁мені	-5266.0
aw	-5267.0
▁izm	-5268.0
▁gel	-5269.0
ņu	-5270.0
cir	-5271.0
▁Mal	-5272.0
▁ί	-5273.0
sid	-5274.0
чат	-5275.0
▁förs	-5276.0
▁absol	-5277.0
▁drugi	-5278.0
▁proti	-5279.0
▁Хо	-5280.0
▁багато	-5281.0
ča	-5282.0
▁ever	-5283.0
▁отри	-5284.0
tenant	-5285.0
▁hatte	-5286.0
▁hy	-5287.0
▁ihm	-5288.0
▁pia	-5289.0
▁всі	-5290.0
▁Jien	-5291.0
hos	-5292.0
atte	-5293.0
▁any	-5294.0
▁mhux	-5295.0
klich	-5296.0
▁eigen	-5297.0
▁Pu	-5298.0
▁vod	-5299.0
▁сві	-5300.0
▁trava	-5301.0
ują	-5302.0
inst	-5303.0
▁trabal	-5304.0
das	-5305.0
▁sia	-5306.0
way	-5307.0
лови	-5308.0
ování	-5309.0
▁last	-5310.0
▁бути	-5311.0
мента	-5312.0
itatea	-5313.0
▁persone	-5314.0
opa	-5315.0
▁Kon	-5316.0
enter	-5317.0
коно	-5318.0
▁leur	-5319.0
▁nech	-5320.0
fri	-5321.0
▁бя	-5322.0
▁цен	-5323.0
▁bħala	-5324.0
▁savez	-5325.0
▁really	-5326.0
ix	-5327.0
▁ál	-5328.0
yje	-5329.0
jich	-5330.0
θηκε	-5331.0
▁jei	-5332.0
▁тех	-5333.0
▁Komis	-5334.0
ερ	-5335.0
etr	-5336.0
▁même	-5337.0
otu	-5338.0
жду	-5339.0
▁лі	-5340.0
▁Nad	-5341.0
▁вклю	-5342.0
▁konkur	-5343.0
пла	-5344.0
чение	-5345.0
ír	-5346.0
orit	-5347.0
▁pessoas	-5348.0
θή	-5349.0
anz	-5350.0
til	-5351.0
umas	-5352.0
▁merc	-5353.0
▁stvar	-5354.0
▁повече	-5355.0
λου	-5356.0
вав	-5357.0
▁испо	-5358.0
νά	-5359.0
bet	-5360.0
▁said	-5361.0
ľa	-5362.0
ným	-5363.0
oku	-5364.0
▁χα	-5365.0
▁sü	-5366.0
aron	-5367.0
ço	-5368.0
▁cul	-5369.0
umiem	-5370.0
▁chose	-5371.0
▁bylo	-5372.0
pid	-5373.0
▁té	-5374.0
▁biss	-5375.0
▁σκ	-5376.0
▁зо	-5377.0
▁imma	-5378.0
▁нещо	-5379.0
▁avait	-5380.0
▁предста	-5381.0
erson	-5382.0
▁stabil	-5383.0
dal	-5384.0
ative	-5385.0
▁uč	-5386.0
▁kesk	-5387.0
цю	-5388.0
üh	-5389.0
▁ért	-5390.0
▁cond	-5391.0
▁denk	-5392.0
lá	-5393.0
▁kis	-5394.0
▁swo	-5395.0
▁bolo	-5396.0
▁tead	-5397.0
▁moeten	-5398.0
ór	-5399.0
ppe	-5400.0
▁anti	-5401.0
jut	-5402.0
▁ее	-5403.0
σσότε	-5404.0
▁Geor	-5405.0
▁είχε	-5406.0
▁então	-5407.0
▁περισσότε	-5408.0
uli	-5409.0
▁Las	-5410.0
▁Nor	-5411.0
gende	-5412.0
▁spos	-5413.0
wk	-5414.0
fach	-5415.0
vero	-5416.0
nyt	-5417.0
▁tou	-5418.0
▁būtų	-5419.0
ća	-5420.0
umā	-5421.0
ált	-5422.0
inda	-5423.0
▁hele	-5424.0
▁Iz	-5425.0
▁защото	-5426.0
▁partner	-5427.0
yllä	-5428.0
▁dez	-5429.0
▁nuo	-5430.0
▁wür	-5431.0
▁sigur	-5432.0
▁Če	-5433.0
icht	-5434.0
писа	-5435.0
▁jist	-5436.0
ťa	-5437.0
ρια	-5438.0
лия	-5439.0
▁töö	-5440.0
▁asem	-5441.0
▁echt	-5442.0
▁exemp	-5443.0
inud	-5444.0
ravo	-5445.0
▁gla	-5446.0
▁vég	-5447.0
ned	-5448.0
amil	-5449.0
▁może	-5450.0
▁були	-5451.0
▁these	-5452.0
ďal	-5453.0
ieważ	-5454.0
▁base	-5455.0
▁fare	-5456.0
▁multe	-5457.0
гли	-5458.0
▁две	-5459.0
▁poss	-5460.0
rez	-5461.0
ших	-5462.0
▁Dav	-5463.0
▁kör	-5464.0
▁peu	-5465.0
nika	-5466.0
▁Iva	-5467.0
▁run	-5468.0
▁prime	-5469.0
▁vienkārši	-5470.0
ļa	-5471.0
▁Ä	-5472.0
aig	-5473.0
▁lé	-5474.0
ager	-5475.0
erste	-5476.0
▁había	-5477.0
cos	-5478.0
▁κάπο	-5479.0
šte	-5480.0
реди	-5481.0
▁hot	-5482.0
ступ	-5483.0
▁dia	-5484.0
▁fem	-5485.0
govor	-5486.0
zej	-5487.0
нето	-5488.0
icu	-5489.0
oth	-5490.0
keit	-5491.0
▁tis	-5492.0
▁San	-5493.0
iems	-5494.0
▁mam	-5495.0
anten	-5496.0
▁perm	-5497.0
▁intern	-5498.0
ugh	-5499.0
mlu	-5500.0
osten	-5501.0
▁zien	-5502.0
urd	-5503.0
enza	-5504.0
десет	-5505.0
▁goed	-5506.0
▁mand	-5507.0
▁vier	-5508.0
▁aktiv	-5509.0
▁время	-5510.0
▁vē	-5511.0
▁ха	-5512.0
▁iespēj	-5513.0
▁κοι	-5514.0
▁κάτι	-5515.0
far	-5516.0
від	-5517.0
вата	-5518.0
▁gaan	-5519.0
▁tämä	-5520.0
aki	-5521.0
▁év	-5522.0
plat	-5523.0
tica	-5524.0
▁tikr	-5525.0
▁ασ	-5526.0
était	-5527.0
▁tutto	-5528.0
▁invest	-5529.0
row	-5530.0
вропей	-5531.0
▁tento	-5532.0
th	-5533.0
egy	-5534.0
чина	-5535.0
▁led	-5536.0
▁pēc	-5537.0
▁något	-5538.0
▁usk	-5539.0
ħab	-5540.0
λευ	-5541.0
▁ting	-5542.0
▁toda	-5543.0
▁έχουν	-5544.0
μφ	-5545.0
▁jį	-5546.0
▁učin	-5547.0
▁zelo	-5548.0
▁потрі	-5549.0
▁problém	-5550.0
▁Ag	-5551.0
▁Aust	-5552.0
▁Έτσι	-5553.0
umo	-5554.0
▁krit	-5555.0
▁hol	-5556.0
▁This	-5557.0
▁však	-5558.0
alifor	-5559.0
▁ütles	-5560.0
āv	-5561.0
ству	-5562.0
▁tab	-5563.0
▁Wenn	-5564.0
мати	-5565.0
▁чем	-5566.0
ograf	-5567.0
πή	-5568.0
▁ceea	-5569.0
▁mont	-5570.0
▁întâ	-5571.0
▁знаю	-5572.0
▁Sk	-5573.0
▁äh	-5574.0
▁projekt	-5575.0
вим	-5576.0
▁demok	-5577.0
▁other	-5578.0
▁Myslím	-5579.0
äll	-5580.0
▁tru	-5581.0
▁виде	-5582.0
▁ukoll	-5583.0
ational	-5584.0
íz	-5585.0
ént	-5586.0
дом	-5587.0
olat	-5588.0
ittle	-5589.0
▁Allura	-5590.0
▁wirklich	-5591.0
bolj	-5592.0
▁otro	-5593.0
▁tylko	-5594.0
ξε	-5595.0
kou	-5596.0
pel	-5597.0
inis	-5598.0
▁oike	-5599.0
aucoup	-5600.0
▁place	-5601.0
üs	-5602.0
ун	-5603.0
ħda	-5604.0
▁zum	-5605.0
▁jaun	-5606.0
áte	-5607.0
itti	-5608.0
▁bos	-5609.0
imos	-5610.0
лкова	-5611.0
▁rész	-5612.0
icz	-5613.0
skat	-5614.0
▁termin	-5615.0
țe	-5616.0
ħna	-5617.0
▁hay	-5618.0
▁hall	-5619.0
δι	-5620.0
iais	-5621.0
▁συν	-5622.0
ówi	-5623.0
anno	-5624.0
▁этом	-5625.0
▁ollut	-5626.0
udo	-5627.0
unto	-5628.0
клад	-5629.0
óż	-5630.0
ęd	-5631.0
ρίζ	-5632.0
ināt	-5633.0
sem	-5634.0
нні	-5635.0
▁Sc	-5636.0
▁sad	-5637.0
▁pur	-5638.0
rå	-5639.0
ползва	-5640.0
▁Wo	-5641.0
tö	-5642.0
▁Din	-5643.0
▁imm	-5644.0
▁vyt	-5645.0
▁мога	-5646.0
log	-5647.0
▁въз	-5648.0
▁уве	-5649.0
inder	-5650.0
▁prad	-5651.0
▁αρ	-5652.0
enda	-5653.0
▁acum	-5654.0
▁свои	-5655.0
▁obser	-5656.0
▁naħseb	-5657.0
ън	-5658.0
▁dawn	-5659.0
▁viss	-5660.0
ležit	-5661.0
ief	-5662.0
ход	-5663.0
ющи	-5664.0
áj	-5665.0
▁Mer	-5666.0
▁usp	-5667.0
denti	-5668.0
▁aqui	-5669.0
▁bych	-5670.0
▁більше	-5671.0
unud	-5672.0
ún	-5673.0
nar	-5674.0
рес	-5675.0
▁dů	-5676.0
▁κό	-5677.0
▁fos	-5678.0
▁padar	-5679.0
ίζω	-5680.0
▁lí	-5681.0
anju	-5682.0
▁einfach	-5683.0
ios	-5684.0
rii	-5685.0
owi	-5686.0
iger	-5687.0
ával	-5688.0
ούμε	-5689.0
▁lat	-5690.0
ću	-5691.0
inote	-5692.0
▁materi	-5693.0
▁Pal	-5694.0
▁fie	-5695.0
▁pic	-5696.0
ciu	-5697.0
tos	-5698.0
▁når	-5699.0
▁byla	-5700.0
▁nast	-5701.0
▁jų	-5702.0
▁Tor	-5703.0
heden	-5704.0
▁poder	-5705.0
▁because	-5706.0
▁который	-5707.0
āja	-5708.0
ční	-5709.0
▁important	-5710.0
ekom	-5711.0
▁Ser	-5712.0
λί	-5713.0
▁Χ	-5714.0
▁För	-5715.0
▁mj	-5716.0
nici	-5717.0
вания	-5718.0
▁вла	-5719.0
▁Lond	-5720.0
▁wsp	-5721.0
зь	-5722.0
▁sens	-5723.0
▁način	-5724.0
ρυ	-5725.0
ються	-5726.0
▁estão	-5727.0
▁potom	-5728.0
đu	-5729.0
zés	-5730.0
лич	-5731.0
▁hund	-5732.0
üt	-5733.0
ший	-5734.0
▁gł	-5735.0
▁спра	-5736.0
iekš	-5737.0
▁honom	-5738.0
ationen	-5739.0
нов	-5740.0
ρετε	-5741.0
omo	-5742.0
zor	-5743.0
▁blo	-5744.0
▁rok	-5745.0
▁още	-5746.0
▁rela	-5747.0
▁μεγά	-5748.0
ēd	-5749.0
▁rak	-5750.0
▁διά	-5751.0
▁μόνο	-5752.0
ков	-5753.0
▁Igen	-5754.0
▁norm	-5755.0
unca	-5756.0
▁dor	-5757.0
▁Mens	-5758.0
ült	-5759.0
ėtų	-5760.0
▁Jā	-5761.0
▁Dus	-5762.0
▁jim	-5763.0
▁пов	-5764.0
ará	-5765.0
▁sí	-5766.0
▁jät	-5767.0
ppo	-5768.0
ття	-5769.0
▁Gu	-5770.0
▁наи	-5771.0
▁clas	-5772.0
▁zato	-5773.0
▁tomto	-5774.0
▁web	-5775.0
aug	-5776.0
olt	-5777.0
▁liik	-5778.0
wy	-5779.0
ге	-5780.0
ною	-5781.0
▁rää	-5782.0
▁χρό	-5783.0
▁sina	-5784.0
▁kontrol	-5785.0
aram	-5786.0
▁jkun	-5787.0
▁gebru	-5788.0
▁толкова	-5789.0
ian	-5790.0
amise	-5791.0
▁două	-5792.0
▁võib	-5793.0
ικέ	-5794.0
▁ét	-5795.0
▁lor	-5796.0
▁ingen	-5797.0
▁nende	-5798.0
ški	-5799.0
amaan	-5800.0
▁orig	-5801.0
▁голо	-5802.0
▁tutti	-5803.0
▁может	-5804.0
dag	-5805.0
▁Θα	-5806.0
kken	-5807.0
▁poh	-5808.0
ontos	-5809.0
jší	-5810.0
ikti	-5811.0
мери	-5812.0
▁tuo	-5813.0
▁seus	-5814.0
▁λί	-5815.0
▁supp	-5816.0
кс	-5817.0
ilu	-5818.0
▁vro	-5819.0
wię	-5820.0
▁Ev	-5821.0
▁τόσο	-5822.0
▁преди	-5823.0
▁två	-5824.0
▁zwe	-5825.0
▁putea	-5826.0
▁probab	-5827.0
обре	-5828.0
▁mõt	-5829.0
ember	-5830.0
▁gøre	-5831.0
▁zdrav	-5832.0
κόμα	-5833.0
▁liel	-5834.0
▁ostat	-5835.0
▁toate	-5836.0
▁zp	-5837.0
▁hit	-5838.0
▁tras	-5839.0
bel	-5840.0
▁milli	-5841.0
▁beaucoup	-5842.0
ются	-5843.0
řed	-5844.0
iskt	-5845.0
▁noi	-5846.0
▁περί	-5847.0
▁jó	-5848.0
▁pré	-5849.0
▁Dies	-5850.0
▁contra	-5851.0
▁только	-5852.0
fo	-5853.0
▁long	-5854.0
▁tijd	-5855.0
▁divers	-5856.0
▁tým	-5857.0
▁χρη	-5858.0
▁għax	-5859.0
▁poate	-5860.0
gio	-5861.0
ovala	-5862.0
▁apenas	-5863.0
▁look	-5864.0
▁kuris	-5865.0
▁talál	-5866.0
owy	-5867.0
šta	-5868.0
лити	-5869.0
▁Για	-5870.0
▁ско	-5871.0
▁Mich	-5872.0
▁lill	-5873.0
▁wieħed	-5874.0
,.	-5875.0
▁ją	-5876.0
▁lö	-5877.0
unos	-5878.0
▁moj	-5879.0
ėra	-5880.0
▁stop	-5881.0
šķ	-5882.0
▁rés	-5883.0
▁praw	-5884.0
set	-5885.0
elet	-5886.0
▁mia	-5887.0
▁paz	-5888.0
▁immer	-5889.0
sl	-5890.0
▁vin	-5891.0
▁antes	-5892.0
▁could	-5893.0
▁συνέ	-5894.0
imy	-5895.0
orth	-5896.0
ложе	-5897.0
▁region	-5898.0
ése	-5899.0
alle	-5900.0
iaus	-5901.0
unci	-5902.0
ържа	-5903.0
▁mine	-5904.0
udu	-5905.0
▁sas	-5906.0
ordan	-5907.0
▁work	-5908.0
▁kohta	-5909.0
▁исполь	-5910.0
part	-5911.0
ások	-5912.0
чите	-5913.0
▁gewo	-5914.0
▁trimest	-5915.0
▁kän	-5916.0
ными	-5917.0
▁Sin	-5918.0
▁proc	-5919.0
▁financi	-5920.0
▁Gra	-5921.0
▁vom	-5922.0
▁могу	-5923.0
▁Β	-5924.0
jad	-5925.0
ksen	-5926.0
▁twee	-5927.0
łą	-5928.0
kiem	-5929.0
vern	-5930.0
▁Jer	-5931.0
▁jou	-5932.0
▁zi	-5933.0
oses	-5934.0
ēram	-5935.0
▁roh	-5936.0
▁vig	-5937.0
▁meine	-5938.0
uf	-5939.0
γε	-5940.0
onu	-5941.0
▁nj	-5942.0
eken	-5943.0
σιμο	-5944.0
▁Tako	-5945.0
utu	-5946.0
▁Ну	-5947.0
▁All	-5948.0
▁αυτά	-5949.0
ρει	-5950.0
áva	-5951.0
▁estamos	-5952.0
ibil	-5953.0
▁nici	-5954.0
øj	-5955.0
anu	-5956.0
ριο	-5957.0
ické	-5958.0
igur	-5959.0
mény	-5960.0
▁Gal	-5961.0
▁complet	-5962.0
ėk	-5963.0
ин	-5964.0
▁dl	-5965.0
utoč	-5966.0
▁jus	-5967.0
▁σχ	-5968.0
skih	-5969.0
▁σχε	-5970.0
tions	-5971.0
кан	-5972.0
▁chiar	-5973.0
бя	-5974.0
daj	-5975.0
pun	-5976.0
εία	-5977.0
erk	-5978.0
▁Åh	-5979.0
▁Mit	-5980.0
▁aga	-5981.0
▁cro	-5982.0
ameni	-5983.0
▁viac	-5984.0
▁fordi	-5985.0
nte	-5986.0
son	-5987.0
čne	-5988.0
▁Finn	-5989.0
▁vå	-5990.0
преде	-5991.0
▁sing	-5992.0
▁больше	-5993.0
▁how	-5994.0
▁tagħha	-5995.0
āka	-5996.0
вид	-5997.0
▁ор	-5998.0
▁enor	-5999.0
▁rece	-6000.0
▁неща	-6001.0
fl	-6002.0
▁minä	-6003.0
▁genom	-6004.0
▁velmi	-6005.0
řeb	-6006.0
рат	-6007.0
ците	-6008.0
▁еще	-6009.0
▁fund	-6010.0
▁ug	-6011.0
pect	-6012.0
▁Aga	-6013.0
▁sod	-6014.0
▁zgod	-6015.0
▁žmon	-6016.0
uth	-6017.0
nings	-6018.0
▁služ	-6019.0
▁iar	-6020.0
▁Parlament	-6021.0
θέ	-6022.0
ály	-6023.0
μέν	-6024.0
▁která	-6025.0
iens	-6026.0
mist	-6027.0
лись	-6028.0
ury	-6029.0
rati	-6030.0
▁fatto	-6031.0
▁sedan	-6032.0
čí	-6033.0
ough	-6034.0
▁esmu	-6035.0
▁какво	-6036.0
▁tiedätkö	-6037.0
iller	-6038.0
▁част	-6039.0
ical	-6040.0
▁konf	-6041.0
▁quanto	-6042.0
ated	-6043.0
▁Tre	-6044.0
этому	-6045.0
▁druh	-6046.0
▁παρά	-6047.0
нию	-6048.0
▁ше	-6049.0
▁ihre	-6050.0
olj	-6051.0
▁înc	-6052.0
▁jaoks	-6053.0
▁πράγμα	-6054.0
▁bev	-6055.0
▁zan	-6056.0
▁bere	-6057.0
▁right	-6058.0
▁ezt	-6059.0
▁tika	-6060.0
▁dobre	-6061.0
▁tus	-6062.0
▁čia	-6063.0
mt	-6064.0
žno	-6065.0
▁lot	-6066.0
▁nám	-6067.0
▁ener	-6068.0
▁przed	-6069.0
kum	-6070.0
▁sé	-6071.0
▁profes	-6072.0
elem	-6073.0
▁indiv	-6074.0
ßen	-6075.0
яви	-6076.0
▁Għal	-6077.0
▁paar	-6078.0
▁piem	-6079.0
isas	-6080.0
▁kah	-6081.0
▁osa	-6082.0
▁znate	-6083.0
▁Iżda	-6084.0
▁trochu	-6085.0
▁Uni	-6086.0
▁jista	-6087.0
▁ktorá	-6088.0
▁procent	-6089.0
ähr	-6090.0
znál	-6091.0
▁fue	-6092.0
ството	-6093.0
▁követ	-6094.0
ність	-6095.0
▁резу	-6096.0
▁public	-6097.0
raš	-6098.0
▁Pat	-6099.0
▁Ναι	-6100.0
▁няма	-6101.0
ům	-6102.0
enty	-6103.0
стру	-6104.0
▁cada	-6105.0
geb	-6106.0
qas	-6107.0
nica	-6108.0
▁Dat	-6109.0
iselt	-6110.0
arm	-6111.0
▁πά	-6112.0
inger	-6113.0
χι	-6114.0
čné	-6115.0
▁mest	-6116.0
▁dieser	-6117.0
yer	-6118.0
▁fö	-6119.0
▁нужно	-6120.0
vaj	-6121.0
нан	-6122.0
asse	-6123.0
stat	-6124.0
лися	-6125.0
мата	-6126.0
entar	-6127.0
▁kn	-6128.0
▁Cre	-6129.0
▁uporab	-6130.0
oren	-6131.0
▁παι	-6132.0
▁było	-6133.0
▁activ	-6134.0
kod	-6135.0
▁ky	-6136.0
лата	-6137.0
lichen	-6138.0
πι	-6139.0
▁συνε	-6140.0
igo	-6141.0
tava	-6142.0
érie	-6143.0
▁міс	-6144.0
▁dizer	-6145.0
▁midagi	-6146.0
wać	-6147.0
▁ця	-6148.0
▁mille	-6149.0
των	-6150.0
inės	-6151.0
▁zei	-6152.0
знача	-6153.0
nje	-6154.0
īga	-6155.0
▁Kol	-6156.0
▁rav	-6157.0
▁tip	-6158.0
▁pozn	-6159.0
▁jeśli	-6160.0
▁nadal	-6161.0
▁bef	-6162.0
▁fis	-6163.0
▁kunt	-6164.0
kam	-6165.0
▁dam	-6166.0
ortun	-6167.0
▁можу	-6168.0
čil	-6169.0
▁hus	-6170.0
▁teis	-6171.0
ateľ	-6172.0
▁Fre	-6173.0
▁cop	-6174.0
▁сти	-6175.0
▁commen	-6176.0
▁online	-6177.0
▁tant	-6178.0
mus	-6179.0
vät	-6180.0
жливо	-6181.0
▁glas	-6182.0
▁suure	-6183.0
▁Sí	-6184.0
▁aici	-6185.0
▁kasut	-6186.0
kri	-6187.0
▁Toda	-6188.0
▁jste	-6189.0
ņēm	-6190.0
ším	-6191.0
jest	-6192.0
▁uni	-6193.0
▁tous	-6194.0
▁μά	-6195.0
anne	-6196.0
▁Pos	-6197.0
▁Teraz	-6198.0
ső	-6199.0
▁Sm	-6200.0
▁stav	-6201.0
pal	-6202.0
вал	-6203.0
▁κυ	-6204.0
▁ки	-6205.0
▁Cor	-6206.0
▁sex	-6207.0
▁spole	-6208.0
▁produkt	-6209.0
▁gewoon	-6210.0
▁social	-6211.0
pär	-6212.0
ére	-6213.0
▁sf	-6214.0
▁lju	-6215.0
▁põh	-6216.0
▁rid	-6217.0
▁može	-6218.0
▁tilb	-6219.0
ements	-6220.0
▁Αν	-6221.0
ogle	-6222.0
vous	-6223.0
▁maks	-6224.0
▁system	-6225.0
under	-6226.0
▁aquí	-6227.0
▁jaar	-6228.0
▁sign	-6229.0
▁empres	-6230.0
ának	-6231.0
▁ανά	-6232.0
▁back	-6233.0
▁была	-6234.0
lex	-6235.0
▁fü	-6236.0
▁etwas	-6237.0
▁май	-6238.0
▁Face	-6239.0
▁YouT	-6240.0
▁fejn	-6241.0
ektr	-6242.0
aix	-6243.0
unde	-6244.0
▁šeit	-6245.0
▁arbej	-6246.0
▁jav	-6247.0
zioni	-6248.0
▁систе	-6249.0
▁използва	-6250.0
ye	-6251.0
вят	-6252.0
▁mé	-6253.0
▁yh	-6254.0
adores	-6255.0
▁diver	-6256.0
▁menos	-6257.0
▁kuidas	-6258.0
hez	-6259.0
čit	-6260.0
ální	-6261.0
ваме	-6262.0
tar	-6263.0
чин	-6264.0
fte	-6265.0
цій	-6266.0
▁úl	-6267.0
▁idő	-6268.0
▁mange	-6269.0
elig	-6270.0
мага	-6271.0
▁bola	-6272.0
▁пови	-6273.0
bles	-6274.0
▁mnog	-6275.0
▁heidän	-6276.0
wią	-6277.0
▁Kr	-6278.0
▁bodo	-6279.0
ege	-6280.0
plu	-6281.0
вий	-6282.0
телно	-6283.0
imu	-6284.0
unn	-6285.0
tir	-6286.0
ντα	-6287.0
ător	-6288.0
▁εκεί	-6289.0
▁velik	-6290.0
▁būs	-6291.0
▁Unter	-6292.0
▁autor	-6293.0
▁identi	-6294.0
▁sitten	-6295.0
дже	-6296.0
чко	-6297.0
▁Wh	-6298.0
▁atât	-6299.0
▁sagde	-6300.0
ång	-6301.0
▁Eh	-6302.0
drig	-6303.0
▁mám	-6304.0
▁zoals	-6305.0
▁diffic	-6306.0
kien	-6307.0
▁fiz	-6308.0
kelig	-6309.0
▁vrlo	-6310.0
аа	-6311.0
▁wid	-6312.0
▁üle	-6313.0
▁викори	-6314.0
γου	-6315.0
▁Czy	-6316.0
▁cho	-6317.0
▁fri	-6318.0
▁тук	-6319.0
▁pokud	-6320.0
▁até	-6321.0
▁jiġ	-6322.0
▁pid	-6323.0
▁более	-6324.0
ματο	-6325.0
endre	-6326.0
▁servi	-6327.0
ātad	-6328.0
▁πρώ	-6329.0
rz	-6330.0
õt	-6331.0
▁sw	-6332.0
▁mur	-6333.0
▁σαν	-6334.0
▁rapp	-6335.0
▁făcut	-6336.0
arijiet	-6337.0
▁ū	-6338.0
cel	-6339.0
dru	-6340.0
erta	-6341.0
▁zeg	-6342.0
▁issa	-6343.0
▁pasa	-6344.0
▁живо	-6345.0
▁Inter	-6346.0
EN	-6347.0
agu	-6348.0
χει	-6349.0
▁uw	-6350.0
anut	-6351.0
ander	-6352.0
▁brit	-6353.0
endant	-6354.0
▁będzie	-6355.0
dě	-6356.0
нем	-6357.0
▁ис	-6358.0
▁була	-6359.0
▁quindi	-6360.0
rou	-6361.0
чна	-6362.0
▁itt	-6363.0
bt	-6364.0
lož	-6365.0
▁Okay	-6366.0
▁этого	-6367.0
och	-6368.0
ový	-6369.0
▁tax	-6370.0
стори	-6371.0
▁wara	-6372.0
▁бі	-6373.0
etty	-6374.0
ôsob	-6375.0
▁Can	-6376.0
▁dve	-6377.0
▁rep	-6378.0
▁яка	-6379.0
▁vaat	-6380.0
▁ponieważ	-6381.0
▁alb	-6382.0
tem	-6383.0
▁hlav	-6384.0
▁mitte	-6385.0
kre	-6386.0
▁Hi	-6387.0
▁UE	-6388.0
▁coś	-6389.0
▁jid	-6390.0
▁При	-6391.0
▁tehn	-6392.0
▁ćemo	-6393.0
▁послед	-6394.0
▁davvero	-6395.0
▁Є	-6396.0
ási	-6397.0
▁ла	-6398.0
ihin	-6399.0
▁oameni	-6400.0
▁produk	-6401.0
уу	-6402.0
kaa	-6403.0
пъл	-6404.0
▁By	-6405.0
▁допо	-6406.0
▁nared	-6407.0
ėte	-6408.0
AAAA	-6409.0
▁ceva	-6410.0
▁sehen	-6411.0
▁stále	-6412.0
kuš	-6413.0
eeee	-6414.0
коло	-6415.0
▁hin	-6416.0
▁qualc	-6417.0
▁temps	-6418.0
▁cha	-6419.0
▁ora	-6420.0
йти	-6421.0
чита	-6422.0
▁polí	-6423.0
▁quar	-6424.0
æg	-6425.0
▁Oui	-6426.0
rī	-6427.0
con	-6428.0
▁кри	-6429.0
▁малко	-6430.0
ége	-6431.0
ħaj	-6432.0
isem	-6433.0
ális	-6434.0
▁anal	-6435.0
▁peri	-6436.0
▁todas	-6437.0
cup	-6438.0
▁dik	-6439.0
▁love	-6440.0
▁нача	-6441.0
ždy	-6442.0
udzi	-6443.0
▁poco	-6444.0
▁toen	-6445.0
▁puede	-6446.0
âr	-6447.0
τεύ	-6448.0
▁Sta	-6449.0
▁ach	-6450.0
къ	-6451.0
jeti	-6452.0
▁Lab	-6453.0
▁víte	-6454.0
▁capac	-6455.0
orden	-6456.0
▁kraj	-6457.0
▁авто	-6458.0
▁maail	-6459.0
▁unser	-6460.0
▁differen	-6461.0
▁tý	-6462.0
▁Aus	-6463.0
▁työ	-6464.0
▁oħra	-6465.0
▁waħda	-6466.0
hin	-6467.0
iejs	-6468.0
óóóó	-6469.0
škai	-6470.0
▁Kad	-6471.0
форма	-6472.0
IT	-6473.0
jä	-6474.0
ney	-6475.0
inio	-6476.0
▁West	-6477.0
itter	-6478.0
▁Zeit	-6479.0
▁final	-6480.0
▁tagasi	-6481.0
▁sellest	-6482.0
enu	-6483.0
вих	-6484.0
itse	-6485.0
liet	-6486.0
▁свої	-6487.0
▁utiliz	-6488.0
indo	-6489.0
▁kaks	-6490.0
▁daugiau	-6491.0
tia	-6492.0
род	-6493.0
rawdę	-6494.0
▁bend	-6495.0
▁diss	-6496.0
sä	-6497.0
itev	-6498.0
ħħar	-6499.0
▁art	-6500.0
▁ува	-6501.0
▁mnie	-6502.0
▁estar	-6503.0
stå	-6504.0
ádz	-6505.0
▁Дж	-6506.0
▁dess	-6507.0
▁sport	-6508.0
▁Tar	-6509.0
μμ	-6510.0
inas	-6511.0
▁Tātad	-6512.0
ρκ	-6513.0
tive	-6514.0
▁сле	-6515.0
▁torn	-6516.0
▁omdat	-6517.0
¡¡	-6518.0
istu	-6519.0
▁arg	-6520.0
▁folk	-6521.0
▁tiempo	-6522.0
▁Dit	-6523.0
▁Naj	-6524.0
▁Como	-6525.0
▁teha	-6526.0
▁tört	-6527.0
▁yhte	-6528.0
iesies	-6529.0
▁потому	-6530.0
▁opravdu	-6531.0
βά	-6532.0
▁Φ	-6533.0
ieš	-6534.0
ikk	-6535.0
▁kro	-6536.0
▁Добре	-6537.0
acă	-6538.0
кото	-6539.0
▁apoi	-6540.0
▁použ	-6541.0
▁wkoll	-6542.0
▁internet	-6543.0
▁наистина	-6544.0
▁où	-6545.0
vert	-6546.0
jí	-6547.0
йо	-6548.0
шь	-6549.0
bru	-6550.0
dej	-6551.0
τια	-6552.0
▁Ty	-6553.0
▁skr	-6554.0
φέ	-6555.0
liš	-6556.0
▁good	-6557.0
rs	-6558.0
▁Sì	-6559.0
▁mű	-6560.0
ról	-6561.0
▁ats	-6562.0
heder	-6563.0
▁Ra	-6564.0
▁zob	-6565.0
inga	-6566.0
▁тра	-6567.0
ewwel	-6568.0
▁where	-6569.0
▁както	-6570.0
▁necess	-6571.0
▁YouTube	-6572.0
вой	-6573.0
▁govor	-6574.0
▁tajjeb	-6575.0
▁лу	-6576.0
▁mud	-6577.0
вести	-6578.0
▁aussi	-6579.0
▁vissz	-6580.0
kyt	-6581.0
rel	-6582.0
▁áno	-6583.0
▁paci	-6584.0
▁κάνει	-6585.0
вого	-6586.0
▁jul	-6587.0
▁между	-6588.0
rā	-6589.0
pil	-6590.0
ască	-6591.0
▁godt	-6592.0
▁mlad	-6593.0
▁produc	-6594.0
▁Ber	-6595.0
▁škol	-6596.0
▁povedal	-6597.0
elm	-6598.0
tie	-6599.0
▁lar	-6600.0
▁має	-6601.0
▁bolj	-6602.0
▁niečo	-6603.0
AN	-6604.0
raž	-6605.0
wad	-6606.0
▁eb	-6607.0
▁make	-6608.0
▁trad	-6609.0
▁külön	-6610.0
fil	-6611.0
endes	-6612.0
accord	-6613.0
▁pul	-6614.0
▁Тепер	-6615.0
--	-6616.0
ús	-6617.0
adt	-6618.0
тре	-6619.0
▁insp	-6620.0
▁hovor	-6621.0
atro	-6622.0
лося	-6623.0
▁Rich	-6624.0
▁aldrig	-6625.0
ox	-6626.0
▁Ро	-6627.0
issä	-6628.0
▁vaš	-6629.0
▁ďal	-6630.0
▁пър	-6631.0
ването	-6632.0
▁politik	-6633.0
▁dois	-6634.0
eln	-6635.0
кту	-6636.0
▁cat	-6637.0
▁zah	-6638.0
▁тру	-6639.0
▁nada	-6640.0
▁két	-6641.0
▁qué	-6642.0
tac	-6643.0
ять	-6644.0
unta	-6645.0
úúúú	-6646.0
пера	-6647.0
роят	-6648.0
▁lejn	-6649.0
▁себе	-6650.0
▁point	-6651.0
wor	-6652.0
▁nõ	-6653.0
▁qal	-6654.0
▁sum	-6655.0
▁сре	-6656.0
▁Imma	-6657.0
▁nevar	-6658.0
aden	-6659.0
▁vedno	-6660.0
▁gol	-6661.0
▁još	-6662.0
▁μικ	-6663.0
▁jaut	-6664.0
▁mora	-6665.0
▁potre	-6666.0
ью	-6667.0
лом	-6668.0
▁Jūs	-6669.0
αααααααα	-6670.0
▁üh	-6671.0
liche	-6672.0
▁pien	-6673.0
▁Со	-6674.0
enea	-6675.0
μένη	-6676.0
▁ots	-6677.0
▁žin	-6678.0
▁histor	-6679.0
▁skutoč	-6680.0
ėd	-6681.0
nisk	-6682.0
rata	-6683.0
ките	-6684.0
▁Van	-6685.0
▁vän	-6686.0
▁besz	-6687.0
▁Са	-6688.0
▁нав	-6689.0
lement	-6690.0
▁agora	-6691.0
ΟΟ	-6692.0
dig	-6693.0
vie	-6694.0
▁fung	-6695.0
▁nors	-6696.0
▁toga	-6697.0
▁predstav	-6698.0
cri	-6699.0
kra	-6700.0
▁sagte	-6701.0
▁veste	-6702.0
щу	-6703.0
čan	-6704.0
сна	-6705.0
▁prijat	-6706.0
uren	-6707.0
▁list	-6708.0
▁fic	-6709.0
▁Finnish	-6710.0
▁tikrųjų	-6711.0
viz	-6712.0
▁сер	-6713.0
▁fast	-6714.0
▁posta	-6715.0
▁seis	-6716.0
▁många	-6717.0
лей	-6718.0
▁Sz	-6719.0
▁спе	-6720.0
▁labi	-6721.0
▁tehd	-6722.0
▁получи	-6723.0
▁bih	-6724.0
sioon	-6725.0
▁mucho	-6726.0
▁parlament	-6727.0
фі	-6728.0
жде	-6729.0
▁jä	-6730.0
▁civ	-6731.0
▁vic	-6732.0
▁aika	-6733.0
▁neid	-6734.0
desmit	-6735.0
▁seine	-6736.0
▁njegov	-6737.0
▁profess	-6738.0
зно	-6739.0
▁От	-6740.0
лове	-6741.0
jorde	-6742.0
▁Olen	-6743.0
▁fors	-6744.0
enz	-6745.0
σκε	-6746.0
спе	-6747.0
▁anc	-6748.0
▁olisi	-6749.0
ület	-6750.0
▁juh	-6751.0
▁lov	-6752.0
▁nue	-6753.0
▁až	-6754.0
▁ży	-6755.0
asid	-6756.0
▁ihn	-6757.0
▁imag	-6758.0
▁note	-6759.0
▁noti	-6760.0
▁eivät	-6761.0
▁jetzt	-6762.0
elikult	-6763.0
SSSS	-6764.0
вала	-6765.0
▁sla	-6766.0
▁slut	-6767.0
▁обе	-6768.0
manto	-6769.0
▁după	-6770.0
▁urmă	-6771.0
▁keine	-6772.0
▁ακόμα	-6773.0
bild	-6774.0
erte	-6775.0
itik	-6776.0
▁нико	-6777.0
▁little	-6778.0
▁virkelig	-6779.0
▁sì	-6780.0
▁pob	-6781.0
▁tím	-6782.0
▁тро	-6783.0
шение	-6784.0
▁indi	-6785.0
▁miejs	-6786.0
σια	-6787.0
isko	-6788.0
▁nal	-6789.0
aħħar	-6790.0
▁zdaj	-6791.0
▁gyven	-6792.0
тро	-6793.0
▁lø	-6794.0
ható	-6795.0
▁Een	-6796.0
στό	-6797.0
▁пар	-6798.0
▁μετά	-6799.0
stva	-6800.0
emaal	-6801.0
ových	-6802.0
qt	-6803.0
edy	-6804.0
▁ano	-6805.0
▁lop	-6806.0
oliko	-6807.0
▁tieto	-6808.0
äd	-6809.0
žas	-6810.0
тім	-6811.0
нете	-6812.0
▁hak	-6813.0
▁αρχ	-6814.0
▁szem	-6815.0
▁spolo	-6816.0
▁Facebo	-6817.0
ómo	-6818.0
znam	-6819.0
▁Nap	-6820.0
лення	-6821.0
▁Pres	-6822.0
▁nėra	-6823.0
▁than	-6824.0
ellement	-6825.0
bir	-6826.0
kke	-6827.0
pir	-6828.0
ulta	-6829.0
▁Wie	-6830.0
▁lon	-6831.0
▁tämän	-6832.0
аль	-6833.0
alne	-6834.0
timo	-6835.0
като	-6836.0
▁rah	-6837.0
▁uděl	-6838.0
ids	-6839.0
äch	-6840.0
▁andre	-6841.0
▁besch	-6842.0
▁nombre	-6843.0
ago	-6844.0
ível	-6845.0
μένα	-6846.0
▁орга	-6847.0
▁nogle	-6848.0
▁respons	-6849.0
ef	-6850.0
xim	-6851.0
▁оби	-6852.0
▁poch	-6853.0
ningar	-6854.0
▁pamat	-6855.0
▁pasak	-6856.0
▁mė	-6857.0
▁ens	-6858.0
▁mär	-6859.0
▁char	-6860.0
▁någon	-6861.0
▁tiene	-6862.0
pot	-6863.0
ffff	-6864.0
šana	-6865.0
▁ran	-6866.0
μαστε	-6867.0
▁tunn	-6868.0
taient	-6869.0
▁favor	-6870.0
▁različ	-6871.0
▁знаєте	-6872.0
▁зав	-6873.0
▁blij	-6874.0
▁sama	-6875.0
▁друго	-6876.0
▁alleen	-6877.0
ath	-6878.0
esn	-6879.0
pués	-6880.0
▁děl	-6881.0
lek	-6882.0
ško	-6883.0
дар	-6884.0
зни	-6885.0
▁yo	-6886.0
▁Ben	-6887.0
oms	-6888.0
▁něk	-6889.0
▁Brit	-6890.0
▁esam	-6891.0
▁lite	-6892.0
▁podr	-6893.0
▁pois	-6894.0
▁mesmo	-6895.0
▁todella	-6896.0
ieden	-6897.0
▁игра	-6898.0
esed	-6899.0
▁mali	-6900.0
ivad	-6901.0
▁skute	-6902.0
aid	-6903.0
āks	-6904.0
▁mysl	-6905.0
▁maken	-6906.0
▁прода	-6907.0
χαν	-6908.0
▁том	-6909.0
aires	-6910.0
▁fois	-6911.0
▁γιατί	-6912.0
▁rzeczy	-6913.0
jus	-6914.0
τών	-6915.0
▁Gesch	-6916.0
▁komun	-6917.0
erde	-6918.0
▁ici	-6919.0
▁nin	-6920.0
▁way	-6921.0
▁дея	-6922.0
▁lors	-6923.0
▁premi	-6924.0
лень	-6925.0
▁vasta	-6926.0
cen	-6927.0
▁ahora	-6928.0
omi	-6929.0
στά	-6930.0
▁dzī	-6931.0
▁say	-6932.0
▁daar	-6933.0
▁проду	-6934.0
▁unsere	-6935.0
bro	-6936.0
ħor	-6937.0
θρω	-6938.0
λεί	-6939.0
▁Го	-6940.0
▁rat	-6941.0
▁své	-6942.0
▁diesem	-6943.0
▁потрібно	-6944.0
κά	-6945.0
kao	-6946.0
▁εγ	-6947.0
vest	-6948.0
▁vou	-6949.0
▁control	-6950.0
ħu	-6951.0
▁dí	-6952.0
▁δι	-6953.0
iała	-6954.0
▁jelent	-6955.0
▁tikrai	-6956.0
▁Dž	-6957.0
▁puol	-6958.0
▁Europ	-6959.0
▁Kyllä	-6960.0
▁означа	-6961.0
ides	-6962.0
▁Mac	-6963.0
▁cou	-6964.0
▁mio	-6965.0
▁тем	-6966.0
▁свою	-6967.0
▁ν	-6968.0
éné	-6969.0
▁Kuid	-6970.0
▁first	-6971.0
διά	-6972.0
▁olid	-6973.0
▁vamos	-6974.0
▁sistem	-6975.0
▁bliver	-6976.0
▁asemenea	-6977.0
ajt	-6978.0
anos	-6979.0
ження	-6980.0
▁esse	-6981.0
▁pomo	-6982.0
▁telj	-6983.0
▁tudod	-6984.0
вительно	-6985.0
ното	-6986.0
▁apm	-6987.0
ienia	-6988.0
▁klaus	-6989.0
▁hö	-6990.0
▁viv	-6991.0
ból	-6992.0
▁λέ	-6993.0
▁rol	-6994.0
▁tah	-6995.0
глежда	-6996.0
▁några	-6997.0
▁europe	-6998.0
omm	-6999.0
rir	-7000.0
▁pala	-7001.0
▁Univers	-7002.0
ős	-7003.0
unut	-7004.0
лось	-7005.0
▁müs	-7006.0
чо	-7007.0
oki	-7008.0
eron	-7009.0
idel	-7010.0
▁ese	-7011.0
▁band	-7012.0
▁Nii	-7013.0
▁svi	-7014.0
aktar	-7015.0
▁správ	-7016.0
▁vastu	-7017.0
ssz	-7018.0
▁ps	-7019.0
▁están	-7020.0
σιμοποι	-7021.0
▁postav	-7022.0
▁ću	-7023.0
alta	-7024.0
cios	-7025.0
▁euh	-7026.0
▁продъл	-7027.0
▁puh	-7028.0
emmän	-7029.0
čnost	-7030.0
▁Port	-7031.0
▁'	-7032.0
sled	-7033.0
▁clar	-7034.0
▁Dakle	-7035.0
▁kapcs	-7036.0
▁elektr	-7037.0
▁origin	-7038.0
ês	-7039.0
▁Úgy	-7040.0
▁radi	-7041.0
▁вече	-7042.0
▁market	-7043.0
χο	-7044.0
▁Sir	-7045.0
▁обо	-7046.0
▁Willi	-7047.0
▁nista	-7048.0
amm	-7049.0
ulo	-7050.0
ńst	-7051.0
atel	-7052.0
ogen	-7053.0
viet	-7054.0
▁Sen	-7055.0
▁tiež	-7056.0
▁sistema	-7057.0
gev	-7058.0
iat	-7059.0
ėje	-7060.0
▁acho	-7061.0
▁инте	-7062.0
▁medic	-7063.0
οο	-7064.0
inde	-7065.0
зова	-7066.0
▁подо	-7067.0
▁volta	-7068.0
olg	-7069.0
▁lá	-7070.0
▁Tra	-7071.0
yg	-7072.0
eko	-7073.0
rio	-7074.0
ное	-7075.0
ffen	-7076.0
stan	-7077.0
▁halu	-7078.0
zon	-7079.0
▁jgħ	-7080.0
▁dollar	-7081.0
xxxx	-7082.0
▁kall	-7083.0
▁volna	-7084.0
▁oblasti	-7085.0
кон	-7086.0
▁well	-7087.0
▁projek	-7088.0
▁naprawdę	-7089.0
τεί	-7090.0
νεται	-7091.0
▁hran	-7092.0
▁trav	-7093.0
▁institu	-7094.0
▁Ва	-7095.0
▁czę	-7096.0
▁cose	-7097.0
eds	-7098.0
▁Stre	-7099.0
éz	-7100.0
▁sun	-7101.0
▁down	-7102.0
▁fak	-7103.0
▁sle	-7104.0
▁päiv	-7105.0
▁yrit	-7106.0
▁день	-7107.0
dob	-7108.0
▁add	-7109.0
▁fej	-7110.0
▁país	-7111.0
▁iż	-7112.0
▁Así	-7113.0
amais	-7114.0
▁esim	-7115.0
▁kuten	-7116.0
лни	-7117.0
ingu	-7118.0
▁Jap	-7119.0
пы	-7120.0
зви	-7121.0
▁наше	-7122.0
▁somet	-7123.0
▁tāpēc	-7124.0
▁gjorde	-7125.0
roš	-7126.0
čně	-7127.0
▁γε	-7128.0
▁νέ	-7129.0
▁typ	-7130.0
▁onde	-7131.0
▁одно	-7132.0
▁anden	-7133.0
сен	-7134.0
tiva	-7135.0
▁lad	-7136.0
▁части	-7137.0
ък	-7138.0
▁θε	-7139.0
▁cet	-7140.0
▁pela	-7141.0
▁Τα	-7142.0
ativa	-7143.0
▁další	-7144.0
▁nějak	-7145.0
▁повер	-7146.0
žd	-7147.0
ność	-7148.0
▁bár	-7149.0
▁rov	-7150.0
▁σου	-7151.0
ности	-7152.0
▁vari	-7153.0
▁anderen	-7154.0
née	-7155.0
atos	-7156.0
elta	-7157.0
▁rast	-7158.0
▁blive	-7159.0
▁gesch	-7160.0
ozaj	-7161.0
▁ton	-7162.0
▁chod	-7163.0
▁зали	-7164.0
▁Vis	-7165.0
▁impl	-7166.0
▁pärast	-7167.0
▁Menschen	-7168.0
ők	-7169.0
διο	-7170.0
endi	-7171.0
▁niż	-7172.0
ises	-7173.0
нови	-7174.0
▁dij	-7175.0
▁ros	-7176.0
▁robi	-7177.0
▁estaba	-7178.0
▁allt	-7179.0
▁suas	-7180.0
sew	-7181.0
▁Ci	-7182.0
ville	-7183.0
▁sada	-7184.0
ността	-7185.0
▁naozaj	-7186.0
нок	-7187.0
otto	-7188.0
žeme	-7189.0
▁Hon	-7190.0
▁kalb	-7191.0
▁pati	-7192.0
▁wiesz	-7193.0
кою	-7194.0
▁сп	-7195.0
ният	-7196.0
▁kie	-7197.0
▁sre	-7198.0
вайте	-7199.0
▁aast	-7200.0
▁varētu	-7201.0
fal	-7202.0
ieb	-7203.0
▁kér	-7204.0
▁inde	-7205.0
λογ	-7206.0
▁åt	-7207.0
▁Па	-7208.0
ário	-7209.0
▁jit	-7210.0
amine	-7211.0
ligen	-7212.0
▁arvan	-7213.0
▁maintenant	-7214.0
inę	-7215.0
▁ша	-7216.0
▁Sel	-7217.0
▁anim	-7218.0
▁igaz	-7219.0
▁määr	-7220.0
▁comer	-7221.0
▁opera	-7222.0
γω	-7223.0
▁mov	-7224.0
▁zach	-7225.0
▁posled	-7226.0
▁administ	-7227.0
ety	-7228.0
▁ieg	-7229.0
▁würde	-7230.0
ără	-7231.0
▁Vor	-7232.0
akter	-7233.0
publi	-7234.0
▁mundo	-7235.0
▁nunca	-7236.0
▁sł	-7237.0
▁благо	-7238.0
ūk	-7239.0
tri	-7240.0
seen	-7241.0
▁Fin	-7242.0
ħabba	-7243.0
▁sitt	-7244.0
wet	-7245.0
▁tarko	-7246.0
вете	-7247.0
▁kau	-7248.0
▁чове	-7249.0
▁resta	-7250.0
▁nastav	-7251.0
▁element	-7252.0
ual	-7253.0
▁хм	-7254.0
ėjau	-7255.0
льта	-7256.0
▁gov	-7257.0
▁näh	-7258.0
▁tada	-7259.0
▁člov	-7260.0
cev	-7261.0
cza	-7262.0
koj	-7263.0
čio	-7264.0
aliza	-7265.0
▁assim	-7266.0
єю	-7267.0
дра	-7268.0
лото	-7269.0
▁bran	-7270.0
▁nüüd	-7271.0
ninger	-7272.0
kę	-7273.0
лите	-7274.0
▁бли	-7275.0
andid	-7276.0
▁hyvä	-7277.0
▁máme	-7278.0
▁tilbage	-7279.0
rede	-7280.0
▁nič	-7281.0
▁Euró	-7282.0
▁kiek	-7283.0
▁jedno	-7284.0
▁God	-7285.0
▁maz	-7286.0
▁tog	-7287.0
▁vit	-7288.0
▁кли	-7289.0
iseen	-7290.0
▁arba	-7291.0
νια	-7292.0
▁Ti	-7293.0
bile	-7294.0
▁τρό	-7295.0
ennem	-7296.0
▁Zato	-7297.0
▁saat	-7298.0
▁Bl	-7299.0
▁aki	-7300.0
▁ier	-7301.0
▁nekoliko	-7302.0
ník	-7303.0
tivo	-7304.0
ками	-7305.0
▁Dur	-7306.0
▁iem	-7307.0
цията	-7308.0
▁tová	-7309.0
▁οικο	-7310.0
▁робо	-7311.0
▁хоче	-7312.0
yttä	-7313.0
▁Net	-7314.0
▁pelo	-7315.0
▁minist	-7316.0
▁Ή	-7317.0
τικέ	-7318.0
▁Star	-7319.0
▁lige	-7320.0
▁Jeśli	-7321.0
ect	-7322.0
▁rit	-7323.0
▁perf	-7324.0
uru	-7325.0
đer	-7326.0
itus	-7327.0
ктив	-7328.0
▁That	-7329.0
▁prieš	-7330.0
▁wissen	-7331.0
apa	-7332.0
ogo	-7333.0
▁incl	-7334.0
▁avoir	-7335.0
▁mennes	-7336.0
▁mindig	-7337.0
hány	-7338.0
▁jut	-7339.0
▁sido	-7340.0
▁decir	-7341.0
▁kapit	-7342.0
šla	-7343.0
▁Ye	-7344.0
▁ori	-7345.0
tavat	-7346.0
zenia	-7347.0
▁Dru	-7348.0
▁поч	-7349.0
ěd	-7350.0
▁sir	-7351.0
▁iets	-7352.0
ság	-7353.0
шим	-7354.0
ikus	-7355.0
lege	-7356.0
▁sätt	-7357.0
▁cosas	-7358.0
▁coisas	-7359.0
daw	-7360.0
ješ	-7361.0
čaj	-7362.0
eben	-7363.0
▁weg	-7364.0
▁tend	-7365.0
ąd	-7366.0
πέ	-7367.0
zion	-7368.0
▁kép	-7369.0
▁naf	-7370.0
▁grad	-7371.0
▁mówi	-7372.0
▁pozi	-7373.0
▁certa	-7374.0
▁nieko	-7375.0
▁puțin	-7376.0
▁zí	-7377.0
▁trou	-7378.0
▁trebui	-7379.0
oru	-7380.0
ensä	-7381.0
jena	-7382.0
▁mama	-7383.0
▁ellen	-7384.0
üks	-7385.0
▁Εν	-7386.0
šimt	-7387.0
uksen	-7388.0
▁għad	-7389.0
▁saada	-7390.0
▁eftersom	-7391.0
▁personas	-7392.0
δί	-7393.0
šet	-7394.0
edes	-7395.0
lust	-7396.0
▁hang	-7397.0
▁signific	-7398.0
▁вз	-7399.0
erst	-7400.0
▁Sal	-7401.0
gte	-7402.0
inc	-7403.0
▁îl	-7404.0
sche	-7405.0
ůsob	-7406.0
pportun	-7407.0
▁podpor	-7408.0
▁può	-7409.0
ystem	-7410.0
änder	-7411.0
▁izmanto	-7412.0
ζί	-7413.0
asa	-7414.0
ote	-7415.0
▁мя	-7416.0
rukt	-7417.0
▁tehdä	-7418.0
▁zrobi	-7419.0
▁či	-7420.0
▁aps	-7421.0
idente	-7422.0
▁const	-7423.0
▁rohkem	-7424.0
▁χρησιμοποι	-7425.0
от	-7426.0
ква	-7427.0
τηση	-7428.0
▁Mil	-7429.0
▁кла	-7430.0
kollu	-7431.0
▁tych	-7432.0
▁desde	-7433.0
▁ktorí	-7434.0
šel	-7435.0
▁næ	-7436.0
ijek	-7437.0
▁esp	-7438.0
▁спа	-7439.0
▁чув	-7440.0
▁leid	-7441.0
▁svoju	-7442.0
umb	-7443.0
▁Де	-7444.0
▁ос	-7445.0
ches	-7446.0
eles	-7447.0
ложи	-7448.0
▁edu	-7449.0
▁sko	-7450.0
▁dove	-7451.0
κή	-7452.0
emy	-7453.0
imin	-7454.0
iski	-7455.0
unden	-7456.0
▁Para	-7457.0
▁noss	-7458.0
▁teie	-7459.0
▁dokon	-7460.0
▁europ	-7461.0
turi	-7462.0
▁zac	-7463.0
▁εργ	-7464.0
enten	-7465.0
▁veik	-7466.0
▁våra	-7467.0
zw	-7468.0
ža	-7469.0
osť	-7470.0
aniu	-7471.0
▁När	-7472.0
eller	-7473.0
▁spun	-7474.0
▁hyvin	-7475.0
▁ihmis	-7476.0
▁истори	-7477.0
nil	-7478.0
▁žen	-7479.0
▁ming	-7480.0
χω	-7481.0
▁tá	-7482.0
etek	-7483.0
нова	-7484.0
▁pă	-7485.0
tiin	-7486.0
▁bomo	-7487.0
▁cerc	-7488.0
▁καθώ	-7489.0
▁ancora	-7490.0
▁έχουμε	-7491.0
кли	-7492.0
aval	-7493.0
▁noz	-7494.0
allen	-7495.0
▁gled	-7496.0
▁magħ	-7497.0
▁этот	-7498.0
js	-7499.0
тни	-7500.0
▁cie	-7501.0
▁práv	-7502.0
▁mejor	-7503.0
▁posit	-7504.0
▁prest	-7505.0
▁уча	-7506.0
▁veľa	-7507.0
▁sulla	-7508.0
imų	-7509.0
akin	-7510.0
▁App	-7511.0
▁смо	-7512.0
▁olnud	-7513.0
▁există	-7514.0
▁realiz	-7515.0
jos	-7516.0
λοι	-7517.0
▁бъ	-7518.0
tség	-7519.0
мите	-7520.0
▁pár	-7521.0
▁tudo	-7522.0
▁nikdy	-7523.0
▁spôsob	-7524.0
dien	-7525.0
▁Kdy	-7526.0
▁aller	-7527.0
ствительно	-7528.0
ňa	-7529.0
kul	-7530.0
ély	-7531.0
čka	-7532.0
▁anos	-7533.0
etu	-7534.0
acji	-7535.0
onių	-7536.0
▁mij	-7537.0
тем	-7538.0
ness	-7539.0
▁Ils	-7540.0
▁Jie	-7541.0
▁gem	-7542.0
▁zelf	-7543.0
▁явля	-7544.0
▁valst	-7545.0
nat	-7546.0
▁Op	-7547.0
▁već	-7548.0
▁фор	-7549.0
▁Bill	-7550.0
▁nakon	-7551.0
▁υπάρχει	-7552.0
omu	-7553.0
▁äl	-7554.0
iego	-7555.0
▁Che	-7556.0
▁gut	-7557.0
▁kész	-7558.0
▁проце	-7559.0
ņa	-7560.0
▁Ще	-7561.0
jort	-7562.0
ljiv	-7563.0
▁cij	-7564.0
▁weil	-7565.0
▁müssen	-7566.0
ць	-7567.0
gue	-7568.0
▁tuk	-7569.0
▁vár	-7570.0
▁parl	-7571.0
▁τώρα	-7572.0
▁хочу	-7573.0
ślę	-7574.0
μού	-7575.0
▁only	-7576.0
▁őket	-7577.0
alment	-7578.0
▁model	-7579.0
▁todėl	-7580.0
▁használ	-7581.0
ettu	-7582.0
▁pew	-7583.0
▁tež	-7584.0
▁keres	-7585.0
▁pogled	-7586.0
▁програ	-7587.0
▁telefon	-7588.0
▁	-7589.0
e	-7590.0
a	-7591.0
i	-7592.0
n	-7593.0
t	-7594.0
o	-7595.0
s	-7596.0
r	-7597.0
l	-7598.0
u	-7599.0
d	-7600.0
m	-7601.0
k	-7602.0
,	-7603.0
p	-7604.0
v	-7605.0
c	-7606.0
g	-7607.0
h	-7608.0
.	-7609.0
j	-7610.0
о	-7611.0
b	-7612.0
а	-7613.0
z	-7614.0
е	-7615.0
и	-7616.0
т	-7617.0
н	-7618.0
y	-7619.0
f	-7620.0
в	-7621.0
р	-7622.0
с	-7623.0
w	-7624.0
α	-7625.0
л	-7626.0
к	-7627.0
д	-7628.0
ä	-7629.0
м	-7630.0
τ	-7631.0
é	-7632.0
ο	-7633.0
ε	-7634.0
п	-7635.0
á	-7636.0
ι	-7637.0
у	-7638.0
ν	-7639.0
я	-7640.0
з	-7641.0
š	-7642.0
і	-7643.0
-	-7644.0
q	-7645.0
í	-7646.0
б	-7647.0
σ	-7648.0
S	-7649.0
A	-7650.0
ρ	-7651.0
ž	-7652.0
г	-7653.0
π	-7654.0
ч	-7655.0
č	-7656.0
'	-7657.0
μ	-7658.0
ā	-7659.0
T	-7660.0
κ	-7661.0
E	-7662.0
M	-7663.0
υ	-7664.0
ă	-7665.0
ö	-7666.0
ь	-7667.0
D	-7668.0
ħ	-7669.0
η	-7670.0
I	-7671.0
P	-7672.0
N	-7673.0
ó	-7674.0
λ	-7675.0
x	-7676.0
ж	-7677.0
й	-7678.0
å	-7679.0
ί	-7680.0
ό	-7681.0
?	-7682.0
ά	-7683.0
х	-7684.0
J	-7685.0
C	-7686.0
ы	-7687.0
έ	-7688.0
B	-7689.0
H	-7690.0
ü	-7691.0
K	-7692.0
ш	-7693.0
L	-7694.0
V	-7695.0
O	-7696.0
ą	-7697.0
ē	-7698.0
ц	-7699.0
ż	-7700.0
ī	-7701.0
ю	-7702.0
γ	-7703.0
щ	-7704.0
ъ	-7705.0
ł	-7706.0
δ	-7707.0
ý	-7708.0
ę	-7709.0
ė	-7710.0
ě	-7711.0
ω	-7712.0
U	-7713.0
ή	-7714.0
ú	-7715.0
G	-7716.0
R	-7717.0
W	-7718.0
ș	-7719.0
χ	-7720.0
F	-7721.0
õ	-7722.0
ć	-7723.0
ț	-7724.0
θ	-7725.0
ų	-7726.0
î	-7727.0
ύ	-7728.0
ū	-7729.0
ř	-7730.0
ġ	-7731.0
ã	-7732.0
à	-7733.0
ś	-7734.0
ő	-7735.0
ť	-7736.0
æ	-7737.0
ώ	-7738.0
э	-7739.0
φ	-7740.0
ø	-7741.0
ņ	-7742.0
è	-7743.0
є	-7744.0
Z	-7745.0
!	-7746.0
į	-7747.0
ф	-7748.0
β	-7749.0
â	-7750.0
ç	-7751.0
Т	-7752.0
ê	-7753.0
ċ	-7754.0
Н	-7755.0
ї	-7756.0
В	-7757.0
ξ	-7758.0
:	-7759.0
С	-7760.0
ů	-7761.0
ζ	-7762.0
П	-7763.0
ľ	-7764.0
Д	-7765.0
Y	-7766.0
К	-7767.0
М	-7768.0
О	-7769.0
ļ	-7770.0
ô	-7771.0
И	-7772.0
Q	-7773.0
А	-7774.0
Я	-7775.0
Α	-7776.0
Б	-7777.0
Ε	-7778.0
ď	-7779.0
ß	-7780.0
З	-7781.0
Τ	-7782.0
Š	-7783.0
Κ	-7784.0
đ	-7785.0
Ο	-7786.0
ű	-7787.0
Е	-7788.0
ň	-7789.0
Σ	-7790.0
Π	-7791.0
ñ	-7792.0
ù	-7793.0
Μ	-7794.0
У	-7795.0
É	-7796.0
ψ	-7797.0
Р	-7798.0
ń	-7799.0
Г	-7800.0
ò	-7801.0
ì	-7802.0
Č	-7803.0
Ц	-7804.0
Л	-7805.0
¿	-7806.0
Э	-7807.0
Х	-7808.0
Ș	-7809.0
ķ	-7810.0
Η	-7811.0
Έ	-7812.0
Î	-7813.0
І	-7814.0
Ч	-7815.0
Ν	-7816.0
X	-7817.0
ģ	-7818.0
Δ	-7819.0
Γ	-7820.0
Ž	-7821.0
Ф	-7822.0
ź	-7823.0
¡	-7824.0
Á	-7825.0
È	-7826.0
ë	-7827.0
Θ	-7828.0
Ό	-7829.0
Ω	-7830.0
Щ	-7831.0
Ú	-7832.0
Ш	-7833.0
Λ	-7834.0
Ü	-7835.0
Å	-7836.0
Ä	-7837.0
Ι	-7838.0
û	-7839.0
ϊ	-7840.0
Χ	-7841.0
Β	-7842.0
Є	-7843.0
Φ	-7844.0
Ρ	-7845.0
Й	-7846.0
Ħ	-7847.0
Ġ	-7848.0
Ή	-7849.0
Ó	-7850.0
Ö	-7851.0
Υ	-7852.0
Í	-7853.0
Ά	-7854.0
ï	-7855.0
œ	-7856.0
À	-7857.0
%	-7858.0
Ж	-7859.0
Ξ	-7860.0
Ю	-7861.0
Ř	-7862.0
Ő	-7863.0
Ď	-7864.0
Ї	-7865.0
Ċ	-7866.0
ŕ	-7867.0
Į	-7868.0
Ż	-7869.0
ĺ	-7870.0
Ś	-7871.0
Ā	-7872.0
/	-7873.0
Ņ	-7874.0
Ζ	-7875.0
ґ	-7876.0
Ç	-7877.0
Õ	-7878.0
Ķ	-7879.0
Ī	-7880.0
Ľ	-7881.0
Ļ	-7882.0
Ē	-7883.0
Ț	-7884.0
Ł	-7885.0
Æ	-7886.0
Ø	-7887.0
Ê	-7888.0
Ь	-7889.0
Ă	-7890.0
Ъ	-7891.0
Ū	-7892.0
Ψ	-7893.0
Ģ	-7894.0
Ė	-7895.0
Ы	-7896.0
Ć	-7897.0
Ě	-7898.0
Ę	-7899.0
Ą	-7900.0
Ť	-7901.0
Ý	-7902.0
Ґ	-7903.0
Ô	-7904.0
$	-7905.0
Â	-7906.0
Ã	-7907.0
Ų	-7908.0
Ű	-7909.0
Ź	-7910.0
€	-7911.0
Ů	-7912.0
Ň	-7913.0
£	-7914.0
Ì	-7915.0
Ń	-7916.0
Œ	-7917.0
